{"[PAD]":0,"[UNK]":1,"[CLS]":2,"[SEP]":3,"[MASK]":4,"\u0013":5,"\u0014":6,"\u0018":7,"\u0019":8,"\u001c":9,"\u001d":10,"\u001f":11,"!":12,"#":13,"$":14,"%":15,"&":16,"'":17,"(":18,")":19,"*":20,"+":21,",":22,"-":23,".":24,"/":25,"0":26,"1":27,"2":28,"3":29,"4":30,"5":31,"6":32,"7":33,"8":34,"9":35,":":36,";":37,"<":38,"=":39,">":40,"?":41,"@":42,"[":43,"\\":44,"]":45,"^":46,"_":47,"`":48,"a":49,"b":50,"c":51,"d":52,"e":53,"f":54,"g":55,"h":56,"i":57,"j":58,"k":59,"l":60,"m":61,"n":62,"o":63,"p":64,"q":65,"r":66,"s":67,"t":68,"u":69,"v":70,"w":71,"x":72,"y":73,"z":74,"{":75,"|":76,"}":77,"~":78,"":79,"##a":80,"##r":81,"##g":82,"##v":83,"##e":84,"##n":85,"##l":86,"##i":87,"##k":88,"##o":89,"##t":90,"##h":91,"##c":92,"##m":93,"##w":94,"##d":95,"##s":96,"##u":97,"##f":98,"##p":99,"##q":100,"##y":101,"##z":102,"##x":103,"##b":104,"##j":105,"##0":106,"##8":107,"##3":108,"##2":109,"##9":110,"##4":111,"##7":112,"##5":113,"##6":114,"##1":115,"##_":116,"##~":117,"##*":118,"##|":119,"##\\":120,"##=":121,"##'":122,"##.":123,"##/":124,"##-":125,"##+":126,"##`":127,"##^":128,"##\u001d":129,"##\u0019":130,"##:":131,"##,":132,"##he":133,"the":134,"##in":135,"##er":136,"##ed":137,"##ou":138,"##nd":139,"##ing":140,"to":141,"##at":142,"##re":143,"th":144,"##is":145,"and":146,"##as":147,"##en":148,"##an":149,"##on":150,"##ll":151,"he":152,"##ar":153,"##or":154,"##es":155,"of":156,"in":157,"##it":158,"``":159,"''":160,"ha":161,"##om":162,"you":163,"##ow":164,"be":165,"her":166,"##id":167,"##ut":168,"was":169,"it":170,"##ot":171,"##le":172,"##ld":173,"##ac":174,"##gh":175,"on":176,"she":177,"##et":178,"st":179,"his":180,"that":181,"##ly":182,"##im":183,"##ay":184,"##st":185,"##ve":186,"##ic":187,"wh":188,"as":189,"re":190,"my":191,"me":192,"##ad":193,"##al":194,"##se":195,"##oo":196,"##ver":197,"##ght":198,"##ould":199,"##ur":200,"##ith":201,"##ir":202,"for":203,"with":204,"##ent":205,"do":206,"an":207,"##ke":208,"had":209,"li":210,"at":211,"sh":212,"##am":213,"we":214,"but":215,"##ion":216,"him":217,"##all":218,"fr":219,"##her":220,"se":221,"sa":222,"not":223,"##ter":224,"##ight":225,"##ked":226,"##pp":227,"ne":228,"##ro":229,"##ack":230,"so":231,"##ain":232,"##ch":233,"##ill":234,"##ant":235,"##ce":236,"##il":237,"kn":238,"out":239,"what":240,"##ore":241,"is":242,"##el":243,"up":244,"##out":245,"##ust":246,"##rou":247,"##ri":248,"whe":249,"have":250,"##ome":251,"said":252,"they":253,"no":254,"##hing":255,"##ard":256,"this":257,"ch":258,"from":259,"go":260,"su":261,"did":262,"ab":263,"##ra":264,"##ct":265,"le":266,"##nt":267,"##king":268,"##ere":269,"all":270,"##ie":271,"de":272,"al":273,"##us":274,"##one":275,"could":276,"##ind":277,"loo":278,"back":279,"would":280,"were":281,"##to":282,"##hed":283,"like":284,"fe":285,"if":286,"##ess":287,"##art":288,"##ge":289,"##own":290,"##est":291,"one":292,"cl":293,"there":294,"##un":295,"##ood":296,"sp":297,"con":298,"##ss":299,"just":300,"ag":301,"into":302,"##ab":303,"##ast":304,"##au":305,"when":306,"wor":307,"ex":308,"know":309,"##ers":310,"##ry":311,"ro":312,"##ide":313,"about":314,"##ep":315,"##ck":316,"##ace":317,"##and":318,"bl":319,"or":320,"hand":321,"##ally":322,"##ake":323,"then":324,"##um":325,"see":326,"them":327,"your":328,"want":329,"##way":330,"over":331,"##ul":332,"te":333,"any":334,"##op":335,"are":336,"##ong":337,"##lf":338,"ey":339,"been":340,"##ist":341,"##ate":342,"sm":343,"get":344,"##ven":345,"tim":346,"##ap":347,"pl":348,"down":349,"lo":350,"co":351,"ever":352,"some":353,"mo":354,"too":355,"##ig":356,"##ame":357,"bo":358,"again":359,"##urn":360,"##ft":361,"thou":362,"com":363,"##are":364,"who":365,"##round":366,"man":367,"off":368,"##ation":369,"##ice":370,"ar":371,"br":372,"time":373,"now":374,"how":375,"##ink":376,"fl":377,"by":378,"##ff":379,"po":380,"##ous":381,"eyes":382,"##ag":383,"head":384,"us":385,"qu":386,"more":387,"##ick":388,"##ive":389,"##ort":390,"##ine":391,"##ull":392,"can":393,"sl":394,"en":395,"##ak":396,"sc":397,"tr":398,"##pped":399,"##ect":400,"##ther":401,"##other":402,"tw":403,"##ound":404,"##os":405,"than":406,"un":407,"##our":408,"##nder":409,"##itt":410,"##self":411,"even":412,"their":413,"##ved":414,"way":415,"im":416,"##fore":417,"##led":418,"##ile":419,"##dd":420,"before":421,"gr":422,"##ire":423,"every":424,"around":425,"will":426,"..":427,"##reat":428,"say":429,"going":430,"other":431,"##ass":432,"...":433,"##ure":434,"pre":435,"##ving":436,"here":437,"pro":438,"af":439,"som":440,"right":441,"##th":442,"##ade":443,"somet":444,"only":445,"think":446,"##rough":447,"bec":448,"turn":449,"through":450,"need":451,"gl":452,"##ue":453,"##ip":454,"looked":455,"##ear":456,"##ered":457,"##ose":458,"look":459,"pr":460,"##fe":461,"let":462,"thought":463,"##ite":464,"should":465,"sw":466,"thing":467,"##ward":468,"##act":469,"##iss":470,"still":471,"after":472,"away":473,"##ol":474,"gu":475,"kne":476,"something":477,"face":478,"##thing":479,"am":480,"door":481,"##pt":482,"mu":483,"##ont":484,"exp":485,"##ity":486,"good":487,"##ies":488,"##ause":489,"long":490,"##ang":491,"never":492,"##ment":493,"wat":494,"ac":495,"##ened":496,"pe":497,"wa":498,"##ach":499,"##dy":500,"##iz":501,"bet":502,"feel":503,"ll":504,"##ble":505,"got":506,"well":507,"asked":508,"where":509,"che":510,"##able":511,"car":512,"##ark":513,"two":514,"##ree":515,"op":516,"##ated":517,"fo":518,"##wn":519,"##ance":520,"##ell":521,"fir":522,"arm":523,"made":524,"##ched":525,"why":526,"##ich":527,"much":528,"ve":529,"##med":530,"##ave":531,"##ather":532,"##ious":533,"our":534,"because":535,"tell":536,"##ting":537,"rem":538,"room":539,"knew":540,"dis":541,"##ittle":542,"##age":543,"##aking":544,"##ath":545,"under":546,"ho":547,"little":548,"mom":549,"##te":550,"##ning":551,"##ady":552,"##ough":553,"day":554,"cr":555,"ke":556,"make":557,"##ery":558,"come":559,"##co":560,"take":561,"##elt":562,"##gg":563,"call":564,"happ":565,"wal":566,"em":567,"may":568,"##ried":569,"##ase":570,"##ful":571,"##ks":572,"first":573,"##ress":574,"cont":575,"##side":576,"##be":577,"##ru":578,"##air":579,"vo":580,"##ber":581,"its":582,"felt":583,"jo":584,"##ence":585,"sure":586,"wo":587,"ca":588,"##ves":589,"start":590,"hands":591,"##ied":592,"tal":593,"##ans":594,"##ared":595,"hel":596,"pull":597,"wanted":598,"took":599,"##ah":600,"comp":601,"##int":602,"turned":603,"##em":604,"night":605,"el":606,"app":607,"sk":608,"really":609,"##ling":610,"##ps":611,"per":612,"des":613,"mar":614,"##oth":615,"try":616,"##ild":617,"##ily":618,"against":619,"voice":620,"sur":621,"has":622,"ad":623,"##uck":624,"##ia":625,"part":626,"res":627,"bel":628,"##ud":629,"fin":630,"hard":631,"##qu":632,"peop":633,"real":634,"##ced":635,"left":636,"which":637,"##ens":638,"##bb":639,"very":640,"beh":641,"help":642,"cou":643,"people":644,"came":645,"told":646,"another":647,"##ds":648,"last":649,"put":650,"##owed":651,"##ise":652,"side":653,"life":654,"##een":655,"##ook":656,"##ish":657,"while":658,"##ross":659,"body":660,"wom":661,"wait":662,"##ty":663,"find":664,"few":665,"sn":666,"##av":667,"spe":668,"gra":669,"anything":670,"rep":671,"moment":672,"yes":673,"##az":674,"being":675,"##les":676,"new":677,"##hes":678,"war":679,"breat":680,"nothing":681,"##ned":682,"##get":683,"ph":684,"##xt":685,"str":686,"own":687,"di":688,"behind":689,"ste":690,"keep":691,"unt":692,"##ions":693,"year":694,"enough":695,"toward":696,"went":697,"light":698,"lau":699,"does":700,"mat":701,"might":702,"##ouse":703,"saw":704,"wr":705,"hair":706,"bed":707,"dr":708,"##ci":709,"##igh":710,"##per":711,"beg":712,"dark":713,"clos":714,"sound":715,"gir":716,"old":717,"hu":718,"until":719,"things":720,"love":721,"mind":722,"cle":723,"##outh":724,"##ways":725,"though":726,"id":727,"##ars":728,"maybe":729,"bu":730,"those":731,"set":732,"##amp":733,"##ching":734,"##ail":735,"open":736,"end":737,"##ys":738,"act":739,"##aring":740,"looking":741,"fing":742,"##ness":743,"once":744,"##ng":745,"##ord":746,"##ost":747,"##orm":748,"most":749,"##ream":750,"##ince":751,"care":752,"##ne":753,"##iend":754,"both":755,"gi":756,"girl":757,"friend":758,"##ool":759,"always":760,"ass":761,"##dded":762,"next":763,"##ons":764,"##cked":765,"##ner":766,"place":767,"sil":768,"att":769,"cur":770,"min":771,"hold":772,"##ower":773,"imp":774,"oh":775,"kill":776,"smil":777,"house":778,"mouth":779,"inside":780,"sat":781,"run":782,"found":783,"front":784,"##row":785,"ple":786,"##ted":787,"heart":788,"inst":789,"without":790,"dec":791,"ser":792,"gre":793,"##less":794,"##ating":795,"home":796,"##ian":797,"rel":798,"blood":799,"same":800,"##ory":801,"work":802,"##aw":803,"everything":804,"rest":805,"##ually":806,"someone":807,"himself":808,"sho":809,"stand":810,"inter":811,"small":812,"##ary":813,"woman":814,"hop":815,"bit":816,"bre":817,"##sw":818,"trying":819,"heard":820,"better":821,"ok":822,"arms":823,"pulled":824,"flo":825,"cor":826,"dra":827,"ret":828,"cour":829,"betw":830,"each":831,"between":832,"father":833,"stre":834,"give":835,"##ised":836,"kiss":837,"mean":838,"wind":839,"##cond":840,"mother":841,"seemed":842,"black":843,"##ier":844,"deep":845,"##ung":846,"smile":847,"##red":848,"second":849,"answ":850,"##pping":851,"##if":852,"##ange":853,"##tered":854,"far":855,"ang":856,"alm":857,"##tain":858,"across":859,"##ably":860,"##sp":861,"fam":862,"pain":863,"stop":864,"myself":865,"hur":866,"sto":867,"three":868,"##ready":869,"##sh":870,"##used":871,"since":872,"dri":873,"already":874,"pass":875,"##ever":876,"sle":877,"##aught":878,"started":879,"point":880,"##ump":881,"quick":882,"almost":883,"gave":884,"stu":885,"breath":886,"##ict":887,"dont":888,"years":889,"must":890,"belie":891,"stay":892,"##ached":893,"stood":894,"men":895,"kind":896,"##ix":897,"##ank":898,"remem":899,"ear":900,"air":901,"else":902,"done":903,"mor":904,"wall":905,"dro":906,"okay":907,"foll":908,"##ors":909,"doing":910,"hell":911,"##gether":912,"tried":913,"tra":914,"##umb":915,"world":916,"ob":917,"##ible":918,"##ings":919,"lips":920,"walked":921,"close":922,"##ane":923,"words":924,"big":925,"ev":926,"hum":927,"tou":928,"mon":929,"slow":930,"##ater":931,"minut":932,"together":933,"##rew":934,"##ized":935,"feet":936,"nodded":937,"ye":938,"sig":939,"##ott":940,"##so":941,"##ple":942,"##ense":943,"didnt":944,"##ushed":945,"wonder":946,"held":947,"near":948,"seen":949,"##ph":950,"met":951,"many":952,"miss":953,"##ured":954,"##ren":955,"these":956,"lot":957,"ra":958,"quest":959,"underst":960,"##ully":961,"##anc":962,"##ash":963,"bar":964,"diff":965,"##ently":966,"ma":967,"supp":968,"int":969,"##gs":970,"##irt":971,"##ason":972,"tre":973,"sim":974,"whis":975,"pers":976,"ent":977,"##ond":978,"##icked":979,"##inking":980,"hear":981,"##pr":982,"play":983,"yet":984,"talk":985,"**":986,"says":987,"move":988,"##ither":989,"conf":990,"bad":991,"##ows":992,"##akes":993,"floor":994,"water":995,"expl":996,"leave":997,"ed":998,"smiled":999,"mr":1000,"##ib":1001,"##day":1002,"sor":1003,"aw":1004,"red":1005,"##iv":1006,"##ained":1007,"##gn":1008,"inc":1009,"great":1010,"dam":1011,"gone":1012,"step":1013,"##gged":1014,"##owing":1015,"table":1016,"herself":1017,"##ying":1018,"##ub":1019,"acc":1020,"eas":1021,"##ek":1022,"fingers":1023,"##iet":1024,"past":1025,"chest":1026,"char":1027,"hour":1028,"needed":1029,"##ention":1030,"prob":1031,"##der":1032,"##iver":1033,"began":1034,"dist":1035,"##ny":1036,"##here":1037,"##ished":1038,"##aced":1039,"name":1040,"##ift":1041,"also":1042,"cons":1043,"##ected":1044,"swe":1045,"getting":1046,"shook":1047,"lu":1048,"half":1049,"##ept":1050,"called":1051,"##rie":1052,"along":1053,"yeah":1054,"##cept":1055,"bro":1056,"##ately":1057,"ter":1058,"soon":1059,"fore":1060,"course":1061,"ben":1062,"soft":1063,"coming":1064,"bus":1065,"finally":1066,"##dden":1067,"fall":1068,"probably":1069,"ide":1070,"dead":1071,"child":1072,"pa":1073,"##ical":1074,"fre":1075,"such":1076,"sudden":1077,"comm":1078,"inv":1079,"##ined":1080,"god":1081,"lean":1082,"least":1083,"##bo":1084,"best":1085,"happened":1086,"cra":1087,"moved":1088,"stra":1089,"pat":1090,"high":1091,"col":1092,"poss":1093,"contin":1094,"return":1095,"##ction":1096,"person":1097,"##ering":1098,"eye":1099,"##ush":1100,"reached":1101,"sorry":1102,"believe":1103,"resp":1104,"skin":1105,"##ms":1106,"white":1107,"later":1108,"phone":1109,"fire":1110,"stopped":1111,"gaz":1112,"##na":1113,"##bbed":1114,"boy":1115,"tight":1116,"list":1117,"making":1118,"feeling":1119,"##idd":1120,"dem":1121,"jack":1122,"surpr":1123,"##ipped":1124,"ask":1125,"##ition":1126,"opened":1127,"press":1128,"ap":1129,"meet":1130,"anyone":1131,"##ged":1132,"ran":1133,"je":1134,"used":1135,"##itting":1136,"sit":1137,"inf":1138,"family":1139,"remember":1140,"sleep":1141,"ind":1142,"understand":1143,"##ters":1144,"##ening":1145,"##ret":1146,"##ual":1147,"everyone":1148,"hor":1149,"plan":1150,"##vel":1151,"##iously":1152,"idea":1153,"hot":1154,"sec":1155,"dire":1156,"fact":1157,"##ided":1158,"brother":1159,"##fully":1160,"taking":1161,"cover":1162,"differ":1163,"morning":1164,"##arent":1165,"shoulder":1166,"mag":1167,"forward":1168,"cut":1169,"ground":1170,"bes":1171,"neck":1172,"fight":1173,"cat":1174,"##aps":1175,"lar":1176,"kept":1177,"power":1178,"read":1179,"##ins":1180,"dad":1181,"hurt":1182,"top":1183,"##anced":1184,"comple":1185,"reg":1186,"##room":1187,"young":1188,"##cer":1189,"quiet":1190,"clear":1191,"##aut":1192,"perf":1193,"quickly":1194,"repl":1195,"days":1196,"rec":1197,"##lo":1198,"##oke":1199,"four":1200,"##head":1201,"vis":1202,"##che":1203,"prot":1204,"##ued":1205,"roll":1206,"##aken":1207,"guy":1208,"slowly":1209,"##sc":1210,"able":1211,"ref":1212,"##ize":1213,"##cc":1214,"use":1215,"alone":1216,"del":1217,"##no":1218,"par":1219,"exc":1220,"wrong":1221,"onto":1222,"lea":1223,"##iness":1224,"##ents":1225,"##og":1226,"thinking":1227,"having":1228,"closed":1229,"ru":1230,"cap":1231,"ready":1232,"##uth":1233,"laugh":1234,"full":1235,"please":1236,"dress":1237,"mine":1238,"##ial":1239,"stared":1240,"sch":1241,"sun":1242,"talking":1243,"det":1244,"fell":1245,"##ically":1246,"hit":1247,"question":1248,"watched":1249,"either":1250,"thro":1251,"##mm":1252,"lift":1253,"coll":1254,"pol":1255,"##ount":1256,"fill":1257,"##fort":1258,"minutes":1259,"mem":1260,"##cking":1261,"whisp":1262,"bab":1263,"beaut":1264,"ty":1265,"##airs":1266,"fine":1267,"pret":1268,"##ead":1269,"tri":1270,"fig":1271,"actually":1272,"cal":1273,"outside":1274,"##ister":1275,"##ult":1276,"##app":1277,"dou":1278,"hall":1279,"chap":1280,"##where":1281,"cold":1282,"##ghed":1283,"##ton":1284,"##ets":1285,"cer":1286,"matter":1287,"suddenly":1288,"guess":1289,"pur":1290,"vamp":1291,"##ger":1292,"har":1293,"glass":1294,"word":1295,"ill":1296,"lost":1297,"lou":1298,"gaze":1299,"##up":1300,"ele":1301,"king":1302,"##oney":1303,"mus":1304,"hope":1305,"sy":1306,"reason":1307,"standing":1308,"mur":1309,"hes":1310,"low":1311,"##ife":1312,"appear":1313,"bur":1314,"##que":1315,"short":1316,"prom":1317,"##att":1318,"##ped":1319,"##night":1320,"times":1321,"walk":1322,"land":1323,"blue":1324,"##ations":1325,"whole":1326,"pretty":1327,"exact":1328,"caught":1329,"pres":1330,"kid":1331,"##tend":1332,"##ips":1333,"thank":1334,"##ides":1335,"##ased":1336,"free":1337,"##ax":1338,"instead":1339,"##ten":1340,"break":1341,"answer":1342,"laughed":1343,"waiting":1344,"##ee":1345,"grin":1346,"five":1347,"death":1348,"chapter":1349,"fur":1350,"complete":1351,"sever":1352,"##ames":1353,"##io":1354,"##eth":1355,"friends":1356,"##man":1357,"lay":1358,"##ma":1359,"warm":1360,"##als":1361,"vampire":1362,"##ures":1363,"build":1364,"others":1365,"taken":1366,"ago":1367,"shot":1368,"different":1369,"def":1370,"##vers":1371,"##osed":1372,"guard":1373,"scream":1374,"##uring":1375,"show":1376,"school":1377,"##enty":1378,"looks":1379,"##rought":1380,"##ike":1381,"legs":1382,"certain":1383,"##ired":1384,"throat":1385,"##ited":1386,"meant":1387,"foot":1388,"imag":1389,"##ken":1390,"fun":1391,"strong":1392,"tom":1393,"whispered":1394,"shirt":1395,"ale":1396,"glanced":1397,"##cus":1398,"gen":1399,"contro":1400,"burn":1401,"bare":1402,"##iding":1403,"perfect":1404,"human":1405,"straight":1406,"ins":1407,"gun":1408,"bring":1409,"##eks":1410,"window":1411,"##ored":1412,"whatever":1413,"cho":1414,"less":1415,"brought":1416,"sex":1417,"##ric":1418,"chr":1419,"##ock":1420,"##acked":1421,"shut":1422,"sent":1423,"##ove":1424,"unc":1425,"large":1426,"holding":1427,"mess":1428,"sign":1429,"stepped":1430,"exactly":1431,"adm":1432,"dream":1433,"##ming":1434,"touch":1435,"##ates":1436,"quite":1437,"##by":1438,"watch":1439,"sub":1440,"leaned":1441,"##zy":1442,"disapp":1443,"sense":1444,"sitting":1445,"watching":1446,"cross":1447,"happy":1448,"count":1449,"cry":1450,"bott":1451,"realized":1452,"##cy":1453,"##ield":1454,"thir":1455,"##pe":1456,"entire":1457,"##unt":1458,"seat":1459,"sam":1460,"##iful":1461,"lead":1462,"cent":1463,"##anger":1464,"##lt":1465,"bra":1466,"##anged":1467,"chair":1468,"nice":1469,"##land":1470,"running":1471,"finger":1472,"##ression":1473,"followed":1474,"na":1475,"six":1476,"hours":1477,"wood":1478,"win":1479,"kit":1480,"closer":1481,"several":1482,"shit":1483,"true":1484,"grabbed":1485,"continued":1486,"shru":1487,"fear":1488,"job":1489,"##br":1490,"##ants":1491,"replied":1492,"##iced":1493,"##ik":1494,"##ison":1495,"##ape":1496,"la":1497,"##els":1498,"line":1499,"##ular":1500,"mad":1501,"beautiful":1502,"##aster":1503,"##otion":1504,"attention":1505,"thr":1506,"clot":1507,"##orn":1508,"wra":1509,"deal":1510,"pushed":1511,"##pl":1512,"##apped":1513,"youre":1514,"##ces":1515,"damn":1516,"chance":1517,"longer":1518,"##aces":1519,"ten":1520,"yell":1521,"trust":1522,"beside":1523,"hung":1524,"baby":1525,"##ze":1526,"appro":1527,"##chen":1528,"saying":1529,"speak":1530,"##ches":1531,"tonight":1532,"consid":1533,"cir":1534,"##read":1535,"shoulders":1536,"interest":1537,"##ract":1538,"month":1539,"bag":1540,"control":1541,"heav":1542,"din":1543,"grand":1544,"town":1545,"##its":1546,"eng":1547,"today":1548,"lear":1549,"stru":1550,"##iff":1551,"tem":1552,"squ":1553,"stom":1554,"sky":1555,"safe":1556,"##ject":1557,"##haps":1558,"apart":1559,"pap":1560,"sweet":1561,"living":1562,"moving":1563,"pri":1564,"case":1565,"perhaps":1566,"money":1567,"sing":1568,"proble":1569,"ir":1570,"slight":1571,"##gan":1572,"##aged":1573,"given":1574,"##cess":1575,"##de":1576,"sens":1577,"##ina":1578,"pie":1579,"change":1580,"fast":1581,"shad":1582,"dev":1583,"smell":1584,"sort":1585,"av":1586,"tears":1587,"##ines":1588,"circ":1589,"known":1590,"road":1591,"pal":1592,"##isted":1593,"kitchen":1594,"thats":1595,"##jo":1596,"parent":1597,"son":1598,"wasnt":1599,"rose":1600,"add":1601,"live":1602,"dropped":1603,"mil":1604,"leaving":1605,"couple":1606,"loved":1607,"tu":1608,"reco":1609,"##antly":1610,"bene":1611,"hon":1612,"office":1613,"eff":1614,"above":1615,"truth":1616,"##bed":1617,"decided":1618,"jump":1619,"sister":1620,"green":1621,"form":1622,"rock":1623,"nat":1624,"women":1625,"##sel":1626,"gri":1627,"##ror":1628,"ign":1629,"business":1630,"tor":1631,"pet":1632,"##ones":1633,"protect":1634,"esc":1635,"cre":1636,"city":1637,"##son":1638,"street":1639,"doub":1640,"mir":1641,"alex":1642,"filled":1643,"##ility":1644,"##ots":1645,"da":1646,"##arr":1647,"ris":1648,"##imes":1649,"##iew":1650,"creat":1651,"##ime":1652,"obv":1653,"##ashed":1654,"anyway":1655,"##ief":1656,"##ident":1657,"##iny":1658,"##cent":1659,"spoke":1660,"working":1661,"passed":1662,"direct":1663,"##ply":1664,"stomach":1665,"completely":1666,"##body":1667,"lifted":1668,"##oun":1669,"##unch":1670,"shar":1671,"drink":1672,"parents":1673,"##arth":1674,"silence":1675,"mut":1676,"bright":1677,"gas":1678,"raised":1679,"dan":1680,"arri":1681,"worry":1682,"seeing":1683,"twenty":1684,"pay":1685,"forg":1686,"coun":1687,"corner":1688,"secret":1689,"trou":1690,"ner":1691,"begin":1692,"pict":1693,"late":1694,"ce":1695,"rather":1696,"frown":1697,"staring":1698,"walking":1699,"sar":1700,"empt":1701,"guys":1702,"pos":1703,"book":1704,"hund":1705,"expression":1706,"supposed":1707,"##rupt":1708,"hundred":1709,"##lly":1710,"killed":1711,"exper":1712,"##medi":1713,"makes":1714,"food":1715,"edge":1716,"##aining":1717,"sque":1718,"shift":1719,"happen":1720,"##ley":1721,"immedi":1722,"##ging":1723,"##acing":1724,"##nding":1725,"mist":1726,"within":1727,"##light":1728,"abs":1729,"hang":1730,"sou":1731,"##ann":1732,"gar":1733,"die":1734,"shout":1735,"coff":1736,"knowing":1737,"conn":1738,"crow":1739,"##la":1740,"picked":1741,"##ony":1742,"##ster":1743,"du":1744,"##ushing":1745,"teeth":1746,"ext":1747,"norm":1748,"building":1749,"nearly":1750,"jul":1751,"wide":1752,"yourself":1753,"sighed":1754,"pleas":1755,"gro":1756,"week":1757,"mark":1758,"##ude":1759,"grow":1760,"##raid":1761,"sear":1762,"##aled":1763,"cam":1764,"##ience":1765,"girls":1766,"tong":1767,"##ilt":1768,"joh":1769,"thanks":1770,"story":1771,"box":1772,"draw":1773,"stuff":1774,"upon":1775,"afraid":1776,"eat":1777,"convers":1778,"clean":1779,"thoughts":1780,"cla":1781,"towards":1782,"##ator":1783,"cant":1784,"giving":1785,"couldnt":1786,"danger":1787,"gold":1788,"##cial":1789,"##hel":1790,"##yed":1791,"easy":1792,"turning":1793,"clothes":1794,"noticed":1795,"possible":1796,"expect":1797,"##let":1798,"enjo":1799,"adv":1800,"seem":1801,"dep":1802,"##ards":1803,"returned":1804,"##itch":1805,"jer":1806,"##any":1807,"waited":1808,"stud":1809,"susp":1810,"sight":1811,"thick":1812,"loud":1813,"except":1814,"kissed":1815,"import":1816,"##unk":1817,"##ists":1818,"drive":1819,"gray":1820,"##ute":1821,"luck":1822,"occ":1823,"opp":1824,"##zz":1825,"grou":1826,"worked":1827,"rolled":1828,"minute":1829,"##ler":1830,"sal":1831,"sad":1832,"beneath":1833,"dest":1834,"pressed":1835,"trans":1836,"pointed":1837,"##ments":1838,"become":1839,"stro":1840,"##more":1841,"##erg":1842,"##ili":1843,"john":1844,"shrugged":1845,"spot":1846,"telling":1847,"##umber":1848,"##tem":1849,"barely":1850,"##iddle":1851,"class":1852,"bir":1853,"clim":1854,"strange":1855,"##ains":1856,"##lic":1857,"##ien":1858,"hey":1859,"leg":1860,"##bs":1861,"sometimes":1862,"christ":1863,"concer":1864,"ann":1865,"##pid":1866,"mer":1867,"desk":1868,"children":1869,"wife":1870,"tongue":1871,"sett":1872,"wondered":1873,"empty":1874,"remind":1875,"pick":1876,"order":1877,"figure":1878,"surprised":1879,"answered":1880,"cheek":1881,"##olog":1882,"##rief":1883,"##ign":1884,"##ient":1885,"immediately":1886,"pock":1887,"ball":1888,"slid":1889,"coffee":1890,"problem":1891,"smo":1892,"##use":1893,"knows":1894,"comfort":1895,"led":1896,"##sed":1897,"##ities":1898,"##umbled":1899,"##uff":1900,"spr":1901,"during":1902,"middle":1903,"##ha":1904,"bill":1905,"##icking":1906,"##amed":1907,"covered":1908,"ord":1909,"earth":1910,"heavy":1911,"##ories":1912,"changed":1913,"disappear":1914,"appeared":1915,"terri":1916,"##tern":1917,"stupid":1918,"stri":1919,"##though":1920,"##selves":1921,"crowd":1922,"##sing":1923,"stone":1924,"##aded":1925,"##ices":1926,"doubt":1927,"sir":1928,"##ls":1929,"bath":1930,"although":1931,"fu":1932,"pack":1933,"sol":1934,"lady":1935,"nose":1936,"##orrow":1937,"pan":1938,"months":1939,"wearing":1940,"er":1941,"conversation":1942,"died":1943,"aff":1944,"##ances":1945,"calm":1946,"pulling":1947,"inform":1948,"however":1949,"art":1950,"fle":1951,"##ene":1952,"anymore":1953,"main":1954,"vict":1955,"simply":1956,"##how":1957,"liked":1958,"hers":1959,"##od":1960,"steps":1961,"number":1962,"gener":1963,"loc":1964,"fair":1965,"med":1966,"eight":1967,"lim":1968,"round":1969,"tall":1970,"throw":1971,"finished":1972,"check":1973,"ring":1974,"sounded":1975,"##du":1976,"law":1977,"slightly":1978,"hed":1979,"--":1980,"knees":1981,"wish":1982,"cell":1983,"##mb":1984,"became":1985,"##my":1986,"##spe":1987,"##aughter":1988,"ble":1989,"##cially":1990,"alive":1991,"none":1992,"paper":1993,"attack":1994,"lit":1995,"rele":1996,"headed":1997,"##bered":1998,"##iting":1999,"tast":2000,"cool":2001,"softly":2002,"fift":2003,"lord":2004,"##vin":2005,"group":2006,"force":2007,"important":2008,"space":2009,"sand":2010,"ur":2011,"musc":2012,"direction":2013,"cop":2014,"spent":2015,"bedroom":2016,"desp":2017,"##ask":2018,"##cing":2019,"##ision":2020,"##yl":2021,"sounds":2022,"fly":2023,"##ively":2024,"##ital":2025,"hus":2026,"##ctor":2027,"added":2028,"##itted":2029,"##ship":2030,"ahead":2031,"##iling":2032,"##bbing":2033,"den":2034,"tomorrow":2035,"brown":2036,"dinner":2037,"##ought":2038,"beat":2039,"surprise":2040,"sold":2041,"##iled":2042,"somehow":2043,"weeks":2044,"forget":2045,"mount":2046,"wants":2047,"reach":2048,"prof":2049,"nick":2050,"##ork":2051,"boo":2052,"recogn":2053,"crazy":2054,"worse":2055,"tiny":2056,"touched":2057,"cast":2058,"quietly":2059,"rid":2060,"trouble":2061,"somewhere":2062,"drew":2063,"threat":2064,"ones":2065,"accept":2066,"lie":2067,"espe":2068,"hesit":2069,"police":2070,"jen":2071,"broken":2072,"follow":2073,"tone":2074,"single":2075,"pen":2076,"gently":2077,"deser":2078,"##ez":2079,"swall":2080,"##tering":2081,"summ":2082,"glad":2083,"##ney":2084,"broke":2085,"especially":2086,"##band":2087,"seconds":2088,"earl":2089,"hun":2090,"wrapped":2091,"wild":2092,"##ails":2093,"kids":2094,"darkness":2095,"state":2096,"##vous":2097,"rich":2098,"worried":2099,"bey":2100,"remembered":2101,"stairs":2102,"command":2103,"demand":2104,"sick":2105,"##oring":2106,"heat":2107,"area":2108,"##oof":2109,"##me":2110,"doors":2111,"##itely":2112,"weap":2113,"beyond":2114,"##aching":2115,"van":2116,"silent":2117,"prep":2118,"mill":2119,"pract":2120,"weak":2121,"tow":2122,"managed":2123,"mel":2124,"view":2125,"questions":2126,"fav":2127,"paused":2128,"threw":2129,"mrs":2130,"situ":2131,"anger":2132,"means":2133,"placed":2134,"spl":2135,"##ested":2136,"sigh":2137,"walls":2138,"ive":2139,"ash":2140,"huge":2141,"##ara":2142,"trees":2143,"batt":2144,"offic":2145,"information":2146,"magic":2147,"daughter":2148,"scr":2149,"seems":2150,"cab":2151,"stret":2152,"##ior":2153,"cas":2154,"stare":2155,"##gging":2156,"lip":2157,"sugg":2158,"expected":2159,"val":2160,"game":2161,"##ages":2162,"##ey":2163,"distance":2164,"mention":2165,"comes":2166,"angry":2167,"gotten":2168,"##reed":2169,"shaking":2170,"##ising":2171,"wound":2172,"##sy":2173,"##osp":2174,"serious":2175,"meeting":2176,"##ael":2177,"brief":2178,"##ibly":2179,"tree":2180,"news":2181,"##ns":2182,"lying":2183,"ge":2184,"catch":2185,"sharp":2186,"##ining":2187,"##ues":2188,"##tempt":2189,"spread":2190,"##cious":2191,"piece":2192,"listen":2193,"pocket":2194,"self":2195,"##ination":2196,"##oss":2197,"wed":2198,"event":2199,"##aint":2200,"ry":2201,"early":2202,"party":2203,"##vent":2204,"bull":2205,"priv":2206,"position":2207,"carry":2208,"##ipp":2209,"jaw":2210,"##sand":2211,"path":2212,"##gr":2213,"matt":2214,"dav":2215,"ship":2216,"smiling":2217,"dar":2218,"##fer":2219,"gather":2220,"##igg":2221,"wet":2222,"arg":2223,"slam":2224,"waist":2225,"chuck":2226,"##ale":2227,"##orted":2228,"react":2229,"tired":2230,"gent":2231,"forced":2232,"##aped":2233,"##aling":2234,"promise":2235,"enc":2236,"hide":2237,"##esh":2238,"bottom":2239,"defin":2240,"drag":2241,"serv":2242,"##ics":2243,"rain":2244,"##ica":2245,"murm":2246,"eyeb":2247,"respond":2248,"fuck":2249,"clearly":2250,"luc":2251,"thousand":2252,"blank":2253,"agreed":2254,"surround":2255,"tot":2256,"cond":2257,"strugg":2258,"toss":2259,"bal":2260,"relax":2261,"desper":2262,"##erm":2263,"nervous":2264,"husband":2265,"anim":2266,"save":2267,"ell":2268,"##ats":2269,"##ky":2270,"const":2271,"snapped":2272,"often":2273,"kno":2274,"fut":2275,"##iliar":2276,"pun":2277,"chin":2278,"grace":2279,"bother":2280,"keeping":2281,"below":2282,"##nded":2283,"mis":2284,"##vered":2285,"hate":2286,"choice":2287,"##ection":2288,"surv":2289,"further":2290,"##oming":2291,"##ana":2292,"suit":2293,"whether":2294,"bell":2295,"star":2296,"lock":2297,"max":2298,"thin":2299,"ant":2300,"takes":2301,"worth":2302,"boys":2303,"playing":2304,"##riend":2305,"##old":2306,"truck":2307,"##ipping":2308,"mass":2309,"pleasure":2310,"vi":2311,"silver":2312,"earlier":2313,"using":2314,"odd":2315,"streng":2316,"partic":2317,"attempt":2318,"pu":2319,"incl":2320,"amaz":2321,"##ena":2322,"bathroom":2323,"slipped":2324,"grinned":2325,"obviously":2326,"locked":2327,"sword":2328,"normal":2329,"pound":2330,"demon":2331,"##imed":2332,"lights":2333,"evening":2334,"repe":2335,"send":2336,"team":2337,"ears":2338,"letting":2339,"dry":2340,"situation":2341,"requ":2342,"crossed":2343,"ver":2344,"##idence":2345,"honest":2346,"##aked":2347,"shall":2348,"arrived":2349,"asking":2350,"##eng":2351,"lived":2352,"emb":2353,"##oint":2354,"ice":2355,"bod":2356,"eyebrow":2357,"jumped":2358,"apparent":2359,"bow":2360,"dog":2361,"eth":2362,"handed":2363,"apartment":2364,"coo":2365,"dressed":2366,"wolf":2367,"invol":2368,"frowned":2369,"camp":2370,"explain":2371,"angel":2372,"mid":2373,"wip":2374,"fold":2375,"dim":2376,"carefully":2377,"center":2378,"hoping":2379,"muttered":2380,"lap":2381,"cheeks":2382,"rad":2383,"##tended":2384,"##ancing":2385,"##ishing":2386,"assum":2387,"contact":2388,"showed":2389,"##set":2390,"realize":2391,"spir":2392,"##ote":2393,"hoped":2394,"music":2395,"james":2396,"breathing":2397,"shed":2398,"certainly":2399,"##orth":2400,"und":2401,"band":2402,"flat":2403,"##ety":2404,"laughing":2405,"jake":2406,"glance":2407,"##cho":2408,"gentle":2409,"lose":2410,"##fied":2411,"themselves":2412,"weight":2413,"track":2414,"agree":2415,"strength":2416,"imagine":2417,"picture":2418,"soul":2419,"##usted":2420,"##using":2421,"##ager":2422,"grew":2423,"cup":2424,"##ative":2425,"whisper":2426,"##ault":2427,"##cted":2428,"##ding":2429,"##inc":2430,"brain":2431,"super":2432,"jon":2433,"favor":2434,"pair":2435,"##oc":2436,"notice":2437,"ol":2438,"wore":2439,"fix":2440,"lives":2441,"##era":2442,"nor":2443,"despite":2444,"##aned":2445,"queen":2446,"snow":2447,"##yle":2448,"cass":2449,"doctor":2450,"##owers":2451,"clou":2452,"scared":2453,"shoot":2454,"definitely":2455,"##kes":2456,"captain":2457,"fail":2458,"hosp":2459,"offered":2460,"tun":2461,"visit":2462,"ah":2463,"field":2464,"usually":2465,"##reen":2466,"familiar":2467,"beginning":2468,"talked":2469,"color":2470,"charl":2471,"energ":2472,"future":2473,"cand":2474,"##ja":2475,"mich":2476,"besides":2477,"age":2478,"handle":2479,"firm":2480,"##aul":2481,"avo":2482,"lower":2483,"##ping":2484,"##elle":2485,"base":2486,"river":2487,"##orge":2488,"disc":2489,"disco":2490,"motion":2491,"easily":2492,"special":2493,"wid":2494,"wel":2495,"forehead":2496,"battle":2497,"entered":2498,"shouted":2499,"aware":2500,"helped":2501,"appre":2502,"##zen":2503,"jud":2504,"memory":2505,"thirty":2506,"level":2507,"key":2508,"fighting":2509,"knife":2510,"gest":2511,"allowed":2512,"forever":2513,"stayed":2514,"##idden":2515,"don":2516,"remained":2517,"mal":2518,"metal":2519,"##go":2520,"##ural":2521,"pot":2522,"pop":2523,"suff":2524,"itself":2525,"pill":2526,"test":2527,"counter":2528,"crack":2529,"relation":2530,"wouldnt":2531,"ethan":2532,"tar":2533,"simple":2534,"tru":2535,"fresh":2536,"neither":2537,"jam":2538,"dangerous":2539,"##rian":2540,"moon":2541,"needs":2542,"among":2543,"shock":2544,"scar":2545,"##asing":2546,"phot":2547,"##ific":2548,"##iel":2549,"afterno":2550,"hen":2551,"focus":2552,"horse":2553,"vampires":2554,"david":2555,"rac":2556,"ow":2557,"cried":2558,"##right":2559,"push":2560,"scent":2561,"missed":2562,"pub":2563,"equ":2564,"surf":2565,"##inked":2566,"lad":2567,"aside":2568,"phys":2569,"effort":2570,"reve":2571,"##ird":2572,"gets":2573,"company":2574,"pin":2575,"flesh":2576,"##ises":2577,"##ressed":2578,"fro":2579,"squeez":2580,"diffic":2581,"hospital":2582,"pale":2583,"note":2584,"bat":2585,"destro":2586,"stick":2587,"willing":2588,"##come":2589,"##inct":2590,"gh":2591,"falling":2592,"shadow":2593,"##rig":2594,"proper":2595,"sweat":2596,"energy":2597,"court":2598,"older":2599,"adam":2600,"##ges":2601,"##izing":2602,"une":2603,"drop":2604,"afternoon":2605,"##ayed":2606,"jeans":2607,"personal":2608,"present":2609,"blond":2610,"##usion":2611,"burst":2612,"seven":2613,"park":2614,"married":2615,"emotion":2616,"desire":2617,"explained":2618,"##ries":2619,"asks":2620,"##lin":2621,"master":2622,"following":2623,"frey":2624,"##idge":2625,"kat":2626,"gon":2627,"fa":2628,"port":2629,"hated":2630,"wanting":2631,"##ession":2632,"hat":2633,"mike":2634,"##ope":2635,"##rit":2636,"moments":2637,"treat":2638,"pour":2639,"fit":2640,"gab":2641,"store":2642,"learned":2643,"putting":2644,"couch":2645,"##pper":2646,"spo":2647,"##acy":2648,"apparently":2649,"##ration":2650,"##oned":2651,"fil":2652,"lab":2653,"dom":2654,"imm":2655,"##olute":2656,"shower":2657,"##urity":2658,"##vern":2659,"relief":2660,"particular":2661,"discus":2662,"speed":2663,"wondering":2664,"drove":2665,"nar":2666,"shake":2667,"goes":2668,"inde":2669,"opening":2670,"turns":2671,"##stairs":2672,"mot":2673,"settled":2674,"dear":2675,"hol":2676,"heal":2677,"thigh":2678,"noise":2679,"stuck":2680,"likely":2681,"hanging":2682,"##ashing":2683,"busy":2684,"third":2685,"cu":2686,"prov":2687,"##ives":2688,"understood":2689,"hunt":2690,"books":2691,"grim":2692,"##ston":2693,"##ug":2694,"screen":2695,"escape":2696,"carried":2697,"##ived":2698,"starting":2699,"windows":2700,"calling":2701,"jason":2702,"ride":2703,"hill":2704,"date":2705,"pant":2706,"screamed":2707,"##amb":2708,"rh":2709,"bent":2710,"fool":2711,"hips":2712,"disappeared":2713,"ta":2714,"maj":2715,"viol":2716,"##cher":2717,"##iers":2718,"bottle":2719,"figured":2720,"michael":2721,"theres":2722,"poor":2723,"##cl":2724,"ended":2725,"determ":2726,"powerful":2727,"tele":2728,"shifted":2729,"rob":2730,"##ulous":2731,"ari":2732,"hunter":2733,"##astic":2734,"mary":2735,"study":2736,"grip":2737,"##nds":2738,"obs":2739,"unless":2740,"imposs":2741,"hea":2742,"fort":2743,"##ils":2744,"##asm":2745,"missing":2746,"mirror":2747,"##ert":2748,"absolute":2749,"##line":2750,"wear":2751,"happening":2752,"##ob":2753,"wake":2754,"bodies":2755,"rece":2756,"dust":2757,"murmured":2758,"echo":2759,"careful":2760,"jos":2761,"##onse":2762,"lets":2763,"hallway":2764,"hy":2765,"summer":2766,"speaking":2767,"learn":2768,"security":2769,"pants":2770,"offer":2771,"eventually":2772,"taste":2773,"belong":2774,"pink":2775,"comput":2776,"##val":2777,"zane":2778,"peace":2779,"hist":2780,"dance":2781,"##ution":2782,"guards":2783,"truly":2784,"flash":2785,"forest":2786,"rachel":2787,"bast":2788,"clen":2789,"##ett":2790,"freyja":2791,"difficult":2792,"country":2793,"twisted":2794,"dru":2795,"##ading":2796,"harder":2797,"##itten":2798,"##men":2799,"share":2800,"##oved":2801,"humans":2802,"sea":2803,"club":2804,"est":2805,"sleeping":2806,"entr":2807,"thumb":2808,"##aff":2809,"pul":2810,"##ses":2811,"##stem":2812,"relationship":2813,"mort":2814,"yours":2815,"weird":2816,"tens":2817,"peter":2818,"##ians":2819,"iv":2820,"storm":2821,"shiver":2822,"jess":2823,"horri":2824,"prop":2825,"yelled":2826,"dig":2827,"smoke":2828,"gift":2829,"uncle":2830,"satis":2831,"nod":2832,"lucky":2833,"##bert":2834,"jes":2835,"##inting":2836,"blind":2837,"doesnt":2838,"leather":2839,"pushing":2840,"response":2841,"unf":2842,"interrupt":2843,"laid":2844,"system":2845,"card":2846,"swallowed":2847,"aunt":2848,"##leep":2849,"grab":2850,"ly":2851,"usual":2852,"palm":2853,"growing":2854,"station":2855,"ways":2856,"##ring":2857,"admit":2858,"spend":2859,"sav":2860,"compl":2861,"message":2862,"asleep":2863,"places":2864,"##attered":2865,"enem":2866,"##miss":2867,"##atic":2868,"enter":2869,"##par":2870,"shes":2871,"##like":2872,"considered":2873,"doll":2874,"##rent":2875,"purp":2876,"reading":2877,"trip":2878,"smooth":2879,"beth":2880,"##illed":2881,"##umped":2882,"sof":2883,"##unity":2884,"##athan":2885,"##otten":2886,"finding":2887,"hadnt":2888,"##ords":2889,"effect":2890,"##ledge":2891,"##anda":2892,"rough":2893,"mov":2894,"wine":2895,"##ball":2896,"seriously":2897,"rom":2898,"funny":2899,"thom":2900,"burning":2901,"lang":2902,"blinked":2903,"leaning":2904,"waved":2905,"post":2906,"miles":2907,"confused":2908,"obvious":2909,"##acher":2910,"##arm":2911,"craw":2912,"frank":2913,"burned":2914,"hole":2915,"hotel":2916,"feelings":2917,"##res":2918,"amer":2919,"distract":2920,"##rid":2921,"bas":2922,"island":2923,"presence":2924,"##ified":2925,"birth":2926,"leng":2927,"vill":2928,"sarah":2929,"soph":2930,"##ius":2931,"wit":2932,"anywhere":2933,"drift":2934,"private":2935,"final":2936,"##arrass":2937,"north":2938,"##bby":2939,"##ron":2940,"embarrass":2941,"ut":2942,"reminded":2943,"##cri":2944,"appreci":2945,"consider":2946,"victor":2947,"emp":2948,"cause":2949,"defe":2950,"##iot":2951,"emma":2952,"lunch":2953,"shop":2954,"refle":2955,"forth":2956,"enjoy":2957,"murder":2958,"shadows":2959,"hidden":2960,"listening":2961,"corre":2962,"bear":2963,"piss":2964,"var":2965,"paul":2966,"impossible":2967,"rub":2968,"##omb":2969,"##iam":2970,"suppose":2971,"vision":2972,"##icious":2973,"rap":2974,"##rated":2975,"elect":2976,"cabin":2977,"block":2978,"uh":2979,"mart":2980,"faint":2981,"frust":2982,"directly":2983,"aid":2984,"prison":2985,"fallen":2986,"song":2987,"##roud":2988,"believed":2989,"whats":2990,"pier":2991,"feels":2992,"##cks":2993,"##cil":2994,"##ency":2995,"mach":2996,"bite":2997,"shoes":2998,"mere":2999,"arr":3000,"allow":3001,"includ":3002,"necess":3003,"shoved":3004,"gard":3005,"##urch":3006,"narrow":3007,"##ander":3008,"surface":3009,"##ounced":3010,"ju":3011,"##lyn":3012,"colle":3013,"doorway":3014,"seth":3015,"text":3016,"##inal":3017,"oppos":3018,"disg":3019,"##port":3020,"west":3021,"mic":3022,"jacket":3023,"demanded":3024,"evil":3025,"succ":3026,"conv":3027,"aut":3028,"trick":3029,"##ury":3030,"wont":3031,"male":3032,"entrance":3033,"grass":3034,"sides":3035,"length":3036,"vol":3037,"report":3038,"experience":3039,"respect":3040,"##ole":3041,"##ormed":3042,"extra":3043,"repeated":3044,"climbed":3045,"aud":3046,"spell":3047,"por":3048,"rubbed":3049,"##itive":3050,"finish":3051,"faces":3052,"##gar":3053,"capt":3054,"warri":3055,"circle":3056,"elb":3057,"numb":3058,"crying":3059,"wave":3060,"fought":3061,"memories":3062,"##yer":3063,"loose":3064,"approached":3065,"join":3066,"played":3067,"wished":3068,"amazing":3069,"driving":3070,"##aur":3071,"mac":3072,"faster":3073,"##oose":3074,"##lessly":3075,"breathe":3076,"ghost":3077,"totally":3078,"cole":3079,"nobody":3080,"clut":3081,"##ners":3082,"ment":3083,"wheel":3084,"reaching":3085,"buck":3086,"coat":3087,"##inging":3088,"jim":3089,"##ades":3090,"slammed":3091,"warning":3092,"##riage":3093,"nic":3094,"lowered":3095,"roof":3096,"invest":3097,"laught":3098,"feed":3099,"ian":3100,"##asion":3101,"board":3102,"pit":3103,"##ai":3104,"involved":3105,"tossed":3106,"hearing":3107,"hardly":3108,"trail":3109,"stiff":3110,"muscles":3111,"##omfort":3112,"laughter":3113,"brand":3114,"beer":3115,"clock":3116,"fist":3117,"##bing":3118,"computer":3119,"inno":3120,"ceiling":3121,"apolog":3122,"##fast":3123,"chang":3124,"lung":3125,"naked":3126,"##cul":3127,"thrust":3128,"unable":3129,"cleared":3130,"tech":3131,"##ids":3132,"sne":3133,"##hood":3134,"iss":3135,"perfectly":3136,"##het":3137,"##mer":3138,"chase":3139,"flick":3140,"south":3141,"size":3142,"wrist":3143,"cru":3144,"heads":3145,"possibly":3146,"tip":3147,"checked":3148,"##uct":3149,"church":3150,"##issa":3151,"mostly":3152,"rush":3153,"bound":3154,"interested":3155,"nur":3156,"continue":3157,"##yal":3158,"##udd":3159,"smart":3160,"process":3161,"tremb":3162,"yellow":3163,"killing":3164,"exist":3165,"##teen":3166,"exha":3167,"rul":3168,"image":3169,"lat":3170,"bitch":3171,"buy":3172,"ordered":3173,"gasped":3174,"accom":3175,"rev":3176,"subject":3177,"hiding":3178,"general":3179,"kicked":3180,"support":3181,"##eless":3182,"weapon":3183,"twice":3184,"dir":3185,"##board":3186,"respons":3187,"foc":3188,"brothers":3189,"born":3190,"nine":3191,"heading":3192,"decision":3193,"spark":3194,"forgotten":3195,"##ald":3196,"opt":3197,"gate":3198,"instantly":3199,"cock":3200,"fully":3201,"blow":3202,"hi":3203,"incred":3204,"army":3205,"beast":3206,"pretend":3207,"##izz":3208,"henry":3209,"##wise":3210,"iron":3211,"narr":3212,"swung":3213,"gigg":3214,"purpose":3215,"button":3216,"tab":3217,"attract":3218,"eric":3219,"regret":3220,"panic":3221,"##rage":3222,"##ibility":3223,"squeezed":3224,"brushed":3225,"feat":3226,"focused":3227,"gras":3228,"risk":3229,"promised":3230,"##well":3231,"logan":3232,"anno":3233,"driver":3234,"gut":3235,"comfortable":3236,"blo":3237,"terrible":3238,"##anted":3239,"div":3240,"mood":3241,"breakfast":3242,"ignored":3243,"##den":3244,"##nel":3245,"##male":3246,"simon":3247,"thomas":3248,"amb":3249,"soldiers":3250,"stream":3251,"paid":3252,"female":3253,"##ented":3254,"##essed":3255,"public":3256,"fright":3257,"fat":3258,"claire":3259,"proud":3260,"history":3261,"flew":3262,"luci":3263,"joe":3264,"##ium":3265,"##eke":3266,"##lish":3267,"suggest":3268,"concerned":3269,"flying":3270,"jour":3271,"luke":3272,"neigh":3273,"blade":3274,"##inn":3275,"##aming":3276,"struck":3277,"welcome":3278,"upset":3279,"##roll":3280,"scene":3281,"##wh":3282,"non":3283,"rising":3284,"lines":3285,"##ague":3286,"hello":3287,"univer":3288,"fault":3289,"pool":3290,"gods":3291,"blur":3292,"surely":3293,"neighb":3294,"til":3295,"rushed":3296,"beach":3297,"excited":3298,"worst":3299,"daniel":3300,"pieces":3301,"produ":3302,"absolutely":3303,"inj":3304,"woods":3305,"separ":3306,"##iday":3307,"bloody":3308,"##ern":3309,"##**":3310,"stretched":3311,"boat":3312,"wedding":3313,"comb":3314,"scra":3315,"parking":3316,"current":3317,"tightly":3318,"honey":3319,"grey":3320,"disappoint":3321,"opposite":3322,"boots":3323,"wooden":3324,"cost":3325,"plate":3326,"##rest":3327,"##bers":3328,"jerked":3329,"built":3330,"excuse":3331,"search":3332,"quar":3333,"kick":3334,"pad":3335,"##anna":3336,"rum":3337,"elev":3338,"leaves":3339,"claw":3340,"breaking":3341,"breast":3342,"indeed":3343,"##omed":3344,"instinct":3345,"##ral":3346,"saf":3347,"##eps":3348,"screaming":3349,"joined":3350,"##inted":3351,"steady":3352,"eyed":3353,"type":3354,"dreams":3355,"harm":3356,"eating":3357,"joy":3358,"train":3359,"psy":3360,"kissing":3361,"rang":3362,"lake":3363,"mas":3364,"##otions":3365,"magn":3366,"backward":3367,"##annah":3368,"##hen":3369,"plans":3370,"dut":3371,"huh":3372,"descri":3373,"##alk":3374,"tick":3375,"sha":3376,"##uit":3377,"##ama":3378,"ya":3379,"swear":3380,"##sion":3381,"ident":3382,"movement":3383,"curled":3384,"kate":3385,"fucking":3386,"##work":3387,"faced":3388,"concent":3389,"interesting":3390,"deliver":3391,"spirit":3392,"studied":3393,"bones":3394,"touching":3395,"##agged":3396,"##ilar":3397,"golden":3398,"unb":3399,"broad":3400,"scan":3401,"dirt":3402,"hungry":3403,"emotions":3404,"##ground":3405,"##house":3406,"engine":3407,"knock":3408,"happens":3409,"yester":3410,"##illy":3411,"brow":3412,"slept":3413,"##ov":3414,"exam":3415,"creature":3416,"easier":3417,"##une":3418,"yesterday":3419,"greet":3420,"regard":3421,"ken":3422,"tent":3423,"fren":3424,"##allen":3425,"prepared":3426,"reaction":3427,"released":3428,"accident":3429,"##rodu":3430,"ban":3431,"rand":3432,"shape":3433,"knowledge":3434,"##ias":3435,"losing":3436,"decl":3437,"flight":3438,"##isto":3439,"caused":3440,"oper":3441,"narrowed":3442,"shudd":3443,"##ensive":3444,"guest":3445,"whose":3446,"flashed":3447,"deeper":3448,"mistake":3449,"godd":3450,"concern":3451,"listened":3452,"##ism":3453,"##ancy":3454,"hig":3455,"##aret":3456,"growled":3457,"anx":3458,"sour":3459,"trave":3460,"josh":3461,"##ective":3462,"mix":3463,"##00":3464,"sink":3465,"##col":3466,"prince":3467,"isnt":3468,"screw":3469,"square":3470,"decide":3471,"knee":3472,"auth":3473,"##aly":3474,"jamie":3475,"bree":3476,"prefer":3477,"travel":3478,"##iley":3479,"ryan":3480,"##unately":3481,"thinks":3482,"staying":3483,"shield":3484,"butt":3485,"arch":3486,"##ceed":3487,"fifteen":3488,"opport":3489,"stun":3490,"dying":3491,"kell":3492,"thor":3493,"fer":3494,"hesitated":3495,"woke":3496,"favorite":3497,"searching":3498,"steel":3499,"##under":3500,"object":3501,"clenched":3502,"smiles":3503,"pray":3504,"animal":3505,"shel":3506,"govern":3507,"boss":3508,"tightened":3509,"##uing":3510,"wings":3511,"##ume":3512,"crew":3513,"shocked":3514,"weapons":3515,"dirty":3516,"inch":3517,"tan":3518,"landed":3519,"vir":3520,"scrat":3521,"occasion":3522,"##icle":3523,"removed":3524,"spun":3525,"college":3526,"eyebrows":3527,"double":3528,"william":3529,"eliz":3530,"entirely":3531,"refused":3532,"uncomfort":3533,"hurry":3534,"tea":3535,"cy":3536,"chuckled":3537,"wonderful":3538,"carrying":3539,"##velop":3540,"hug":3541,"avoid":3542,"grown":3543,"##mas":3544,"bastard":3545,"nearby":3546,"drunk":3547,"##friend":3548,"awk":3549,"planned":3550,"showing":3551,"awkward":3552,"##itude":3553,"##umbling":3554,"hors":3555,"obser":3556,"bringing":3557,"recognized":3558,"##arily":3559,"instant":3560,"knocked":3561,"orig":3562,"everywhere":3563,"breathed":3564,"reply":3565,"uns":3566,"shared":3567,"solid":3568,"san":3569,"suggested":3570,"admitted":3571,"dun":3572,"indic":3573,"##ially":3574,"saved":3575,"row":3576,"charlie":3577,"gives":3578,"desperate":3579,"theyre":3580,"##imp":3581,"##nday":3582,"julian":3583,"gathered":3584,"mountain":3585,"##gie":3586,"cook":3587,"dare":3588,"warmth":3589,"smir":3590,"##igned":3591,"yan":3592,"cow":3593,"major":3594,"belly":3595,"closing":3596,"comment":3597,"##asy":3598,"answers":3599,"##antic":3600,"otherwise":3601,"bought":3602,"##por":3603,"mc":3604,"anci":3605,"sending":3606,"19":3607,"pregn":3608,"sucked":3609,"##ously":3610,"convin":3611,"depart":3612,"stories":3613,"bridge":3614,"giant":3615,"sexy":3616,"deeply":3617,"boyfriend":3618,"hurried":3619,"restaur":3620,"claim":3621,"record":3622,"buried":3623,"heaven":3624,"calls":3625,"staff":3626,"groaned":3627,"libr":3628,"pure":3629,"emily":3630,"techn":3631,"liz":3632,"instru":3633,"cars":3634,"stage":3635,"pleased":3636,"##key":3637,"um":3638,"tear":3639,"rare":3640,"silently":3641,"meaning":3642,"beauty":3643,"pictures":3644,"tour":3645,"rolling":3646,"##ique":3647,"unfort":3648,"helping":3649,"awake":3650,"investig":3651,"jeff":3652,"dragged":3653,"stab":3654,"stir":3655,"##eled":3656,"glow":3657,"##ese":3658,"marry":3659,"challen":3660,"dragon":3661,"belt":3662,"author":3663,"reality":3664,"bru":3665,"##rel":3666,"##ura":3667,"cust":3668,"sac":3669,"##reme":3670,"exch":3671,"common":3672,"success":3673,"prin":3674,"fifty":3675,"deck":3676,"adj":3677,"surrounded":3678,"faded":3679,"spin":3680,"drawn":3681,"letter":3682,"stat":3683,"eld":3684,"host":3685,"fal":3686,"##agg":3687,"names":3688,"deb":3689,"insp":3690,"##str":3691,"necessary":3692,"eager":3693,"noah":3694,"##eping":3695,"imagined":3696,"relie":3697,"holl":3698,"training":3699,"gle":3700,"tur":3701,"works":3702,"intense":3703,"jac":3704,"pulls":3705,"##ogra":3706,"ling":3707,"##case":3708,"##itor":3709,"amount":3710,"##ded":3711,"##ational":3712,"action":3713,"prec":3714,"lily":3715,"local":3716,"pause":3717,"##ican":3718,"##ument":3719,"service":3720,"remain":3721,"##ences":3722,"folded":3723,"##nes":3724,"rage":3725,"leading":3726,"langu":3727,"determined":3728,"##nie":3729,"charge":3730,"cig":3731,"lack":3732,"glasses":3733,"bank":3734,"displ":3735,"wiped":3736,"excite":3737,"mate":3738,"youve":3739,"##ios":3740,"##rick":3741,"grate":3742,"##dom":3743,"sus":3744,"ren":3745,"nature":3746,"ancient":3747,"introdu":3748,"drawing":3749,"gabri":3750,"drinking":3751,"horses":3752,"leap":3753,"##bit":3754,"officer":3755,"tort":3756,"sliding":3757,"pointing":3758,"##ashes":3759,"occur":3760,"##uss":3761,"stars":3762,"movie":3763,"gall":3764,"cale":3765,"expecting":3766,"mentioned":3767,"richard":3768,"considering":3769,"passing":3770,"##asons":3771,"chat":3772,"betr":3773,"younger":3774,"natural":3775,"discovered":3776,"chick":3777,"waves":3778,"mod":3779,"slip":3780,"voices":3781,"plenty":3782,"opportunity":3783,"rise":3784,"##uc":3785,"aband":3786,"curious":3787,"witch":3788,"##thy":3789,"##lled":3790,"streets":3791,"rooms":3792,"heels":3793,"##wood":3794,"glared":3795,"dozen":3796,"recall":3797,"fab":3798,"excitement":3799,"details":3800,"hom":3801,"horror":3802,"crap":3803,"domin":3804,"jared":3805,"physical":3806,"##itary":3807,"rout":3808,"intim":3809,"garden":3810,"bul":3811,"problems":3812,"oliv":3813,"assist":3814,"cave":3815,"lightly":3816,"blame":3817,"dart":3818,"jew":3819,"wand":3820,"ray":3821,"pressure":3822,"written":3823,"##mp":3824,"clo":3825,"##iment":3826,"##aches":3827,"loss":3828,"throwing":3829,"badly":3830,"resist":3831,"members":3832,"##the":3833,"lif":3834,"relaxed":3835,"enemy":3836,"##ham":3837,"##gu":3838,"##ooked":3839,"##iculous":3840,"seb":3841,"bry":3842,"keys":3843,"##agger":3844,"hous":3845,"grunt":3846,"incre":3847,"kyl":3848,"safety":3849,"experien":3850,"ignore":3851,"christmas":3852,"##ette":3853,"setting":3854,"stronger":3855,"york":3856,"glo":3857,"match":3858,"blast":3859,"spar":3860,"prev":3861,"##gress":3862,"ank":3863,"tied":3864,"cassie":3865,"dawn":3866,"correct":3867,"holy":3868,"##alous":3869,"tail":3870,"account":3871,"orders":3872,"##arsh":3873,"fol":3874,"blanket":3875,"##end":3876,"interrupted":3877,"kisses":3878,"rested":3879,"fac":3880,"target":3881,"lucas":3882,"weeke":3883,"veh":3884,"##ilities":3885,"##tle":3886,"pissed":3887,"##ye":3888,"##ille":3889,"witness":3890,"twel":3891,"ability":3892,"tv":3893,"inh":3894,"##oted":3895,"wis":3896,"##ker":3897,"christian":3898,"##lfriend":3899,"features":3900,"guilt":3901,"jan":3902,"thighs":3903,"girlfriend":3904,"temper":3905,"##ts":3906,"greg":3907,"sebast":3908,"failed":3909,"psych":3910,"swept":3911,"confir":3912,"obl":3913,"elevator":3914,"corrid":3915,"pred":3916,"anna":3917,"becoming":3918,"kylie":3919,"council":3920,"olivia":3921,"##ella":3922,"jesus":3923,"honor":3924,"edd":3925,"unlike":3926,"terror":3927,"##itched":3928,"plane":3929,"##abeth":3930,"##can":3931,"nowhere":3932,"skill":3933,"commun":3934,"pressing":3935,"tucked":3936,"fish":3937,"english":3938,"hint":3939,"intern":3940,"slee":3941,"george":3942,"million":3943,"##erial":3944,"bitter":3945,"organ":3946,"named":3947,"skirt":3948,"flames":3949,"sell":3950,"evidence":3951,"forty":3952,"manage":3953,"doc":3954,"##father":3955,"silk":3956,"release":3957,"##iant":3958,"firmly":3959,"poured":3960,"mission":3961,"smelled":3962,"sebastian":3963,"porch":3964,"abrupt":3965,"overw":3966,"scow":3967,"cha":3968,"##ante":3969,"youll":3970,"sed":3971,"bon":3972,"sen":3973,"##acks":3974,"including":3975,"##ev":3976,"twist":3977,"restaurant":3978,"irrit":3979,"bigger":3980,"prove":3981,"chill":3982,"unw":3983,"responded":3984,"tang":3985,"reb":3986,"east":3987,"##isters":3988,"##uries":3989,"fant":3990,"***":3991,"##icate":3992,"cash":3993,"fart":3994,"result":3995,"##ires":3996,"##eling":3997,"starts":3998,"##aging":3999,"flowers":4000,"nate":4001,"pace":4002,"compan":4003,"##very":4004,"##olves":4005,"blake":4006,"cared":4007,"##min":4008,"higher":4009,"struggled":4010,"planning":4011,"##neath":4012,"winter":4013,"village":4014,"massive":4015,"##rog":4016,"cous":4017,"##action":4018,"##mother":4019,"twelve":4020,"phil":4021,"##oe":4022,"project":4023,"upstairs":4024,"backed":4025,"spoken":4026,"ivy":4027,"isab":4028,"log":4029,"exh":4030,"##hew":4031,"lovely":4032,"similar":4033,"facing":4034,"disp":4035,"vib":4036,"french":4037,"##uses":4038,"grad":4039,"difference":4040,"robert":4041,"jane":4042,"gripped":4043,"widened":4044,"page":4045,"##lla":4046,"tony":4047,"ripped":4048,"marriage":4049,"buzz":4050,"fed":4051,"planet":4052,"##nn":4053,"cream":4054,"material":4055,"whenever":4056,"rick":4057,"extreme":4058,"##rop":4059,"papers":4060,"parked":4061,"##ider":4062,"bay":4063,"passion":4064,"uncomfortable":4065,"##mit":4066,"##icip":4067,"whom":4068,"carp":4069,"jealous":4070,"kar":4071,"demons":4072,"castle":4073,"flood":4074,"nightm":4075,"oce":4076,"##ature":4077,"##sey":4078,"swim":4079,"snar":4080,"liam":4081,"ridiculous":4082,"machine":4083,"##iction":4084,"##aine":4085,"purse":4086,"powers":4087,"reasons":4088,"briefly":4089,"elizabeth":4090,"weather":4091,"vac":4092,"underneath":4093,"tension":4094,"insisted":4095,"pil":4096,"##amber":4097,"liqu":4098,"enjoyed":4099,"choose":4100,"slide":4101,"practically":4102,"relieved":4103,"race":4104,"monster":4105,"plain":4106,"survive":4107,"nights":4108,"startled":4109,"gorge":4110,"cel":4111,"##inary":4112,"satisf":4113,"##con":4114,"heavily":4115,"plastic":4116,"lex":4117,"princess":4118,"##ization":4119,"parts":4120,"trent":4121,"handsome":4122,"sniff":4123,"knight":4124,"confusion":4125,"stopping":4126,"dancing":4127,"##ival":4128,"chris":4129,"cryst":4130,"library":4131,"anticip":4132,"##icing":4133,"fang":4134,"urge":4135,"profess":4136,"ted":4137,"##isa":4138,"fier":4139,"blew":4140,"eve":4141,"emer":4142,"cart":4143,"warned":4144,"camera":4145,"pip":4146,"##lies":4147,"jace":4148,"stair":4149,"write":4150,"innocent":4151,"tit":4152,"##zed":4153,"tunnel":4154,"hamm":4155,"guns":4156,"##ctions":4157,"wow":4158,"conscious":4159,"##iving":4160,"sts":4161,"##pes":4162,"nightmare":4163,"attend":4164,"ate":4165,"merely":4166,"##vering":4167,"rules":4168,"##dding":4169,"connection":4170,"##iest":4171,"ger":4172,"neg":4173,"grave":4174,"radio":4175,"beck":4176,"leader":4177,"brush":4178,"cloud":4179,"picking":4180,"faith":4181,"forgot":4182,"ms":4183,"inches":4184,"bleed":4185,"upper":4186,"##oll":4187,"accord":4188,"emplo":4189,"ven":4190,"rear":4191,"##__":4192,"agent":4193,"sank":4194,"swir":4195,"connor":4196,"##iber":4197,"##antage":4198,"##eter":4199,"clay":4200,"camer":4201,"##iently":4202,"embr":4203,"sean":4204,"victim":4205,"idiot":4206,"julia":4207,"##idding":4208,"teen":4209,"split":4210,"ber":4211,"horrible":4212,"ward":4213,"##ality":4214,"tells":4215,"pounding":4216,"##top":4217,"honestly":4218,"tatt":4219,"rif":4220,"rust":4221,"froze":4222,"creatures":4223,"normally":4224,"brad":4225,"assumed":4226,"##ira":4227,"teacher":4228,"thrown":4229,"reass":4230,"intell":4231,"frame":4232,"ron":4233,"address":4234,"writing":4235,"ug":4236,"yard":4237,"##istic":4238,"glancing":4239,"created":4240,"weekend":4241,"stumbled":4242,"tess":4243,"develop":4244,"reluct":4245,"##ify":4246,"##yn":4247,"nods":4248,"farm":4249,"overwhel":4250,"##view":4251,"##ca":4252,"military":4253,"dread":4254,"swift":4255,"rail":4256,"lots":4257,"flipped":4258,"##af":4259,"unfortunately":4260,"##umps":4261,"##ndon":4262,"fash":4263,"orange":4264,"access":4265,"understanding":4266,"unif":4267,"suck":4268,"resting":4269,"closet":4270,"ease":4271,"nathan":4272,"lungs":4273,"tempt":4274,"animals":4275,"hood":4276,"appreciate":4277,"fixed":4278,"fists":4279,"grateful":4280,"destroy":4281,"convinced":4282,"freed":4283,"utter":4284,"##hol":4285,"spring":4286,"spine":4287,"stands":4288,"pregnant":4289,"soot":4290,"grabbing":4291,"##gram":4292,"awful":4293,"cheer":4294,"cigaret":4295,"##laimed":4296,"tender":4297,"damp":4298,"sin":4299,"somebody":4300,"##ki":4301,"ni":4302,"##acle":4303,"resc":4304,"ting":4305,"fan":4306,"##now":4307,"hugged":4308,"fury":4309,"glare":4310,"ram":4311,"loudly":4312,"beating":4313,"pile":4314,"##gest":4315,"furn":4316,"carol":4317,"eddie":4318,"refer":4319,"##time":4320,"distant":4321,"jay":4322,"events":4323,"torn":4324,"strang":4325,"trembling":4326,"##aper":4327,"map":4328,"##aunt":4329,"thunder":4330,"##ppy":4331,"rever":4332,"dropping":4333,"daddy":4334,"jose":4335,"worn":4336,"bone":4337,"damned":4338,"grandmother":4339,"meal":4340,"custom":4341,"surprising":4342,"##book":4343,"sco":4344,"##itions":4345,"ocean":4346,"##enger":4347,"##for":4348,"resear":4349,"fierce":4350,"bird":4351,"cele":4352,"activ":4353,"taught":4354,"delight":4355,"fired":4356,"meat":4357,"nik":4358,"wer":4359,"##ddy":4360,"temple":4361,"tattoo":4362,"recognize":4363,"rapid":4364,"painting":4365,"##vision":4366,"##ential":4367,"fate":4368,"height":4369,"fashion":4370,"##istan":4371,"tilted":4372,"##iance":4373,"american":4374,"clouds":4375,"##ech":4376,"##ita":4377,"practice":4378,"killer":4379,"wes":4380,"accepted":4381,"crim":4382,"##lor":4383,"guil":4384,"curtain":4385,"ack":4386,"acting":4387,"language":4388,"gorgeous":4389,"dere":4390,"hip":4391,"distur":4392,"riley":4393,"clothing":4394,"cro":4395,"buildings":4396,"damage":4397,"cott":4398,"abby":4399,"elbow":4400,"warrior":4401,"harsh":4402,"wash":4403,"chain":4404,"##ront":4405,"##ora":4406,"dug":4407,"rubbing":4408,"##erson":4409,"frozen":4410,"celebr":4411,"tugged":4412,"##vis":4413,"due":4414,"##ka":4415,"shakes":4416,"rocks":4417,"##aks":4418,"marsh":4419,"crou":4420,"chew":4421,"##asure":4422,"whir":4423,"cad":4424,"corridor":4425,"stranger":4426,"cracked":4427,"skull":4428,"##mo":4429,"spotted":4430,"##form":4431,"joke":4432,"priest":4433,"brick":4434,"explod":4435,"plus":4436,"depe":4437,"breeze":4438,"sensation":4439,"ignoring":4440,"government":4441,"##ris":4442,"tie":4443,"ali":4444,"chose":4445,"flut":4446,"polit":4447,"grandfather":4448,"chairs":4449,"myst":4450,"explos":4451,"forgive":4452,"assured":4453,"chlo":4454,"##ivid":4455,"##inated":4456,"frustration":4457,"gw":4458,"towel":4459,"suspected":4460,"pillow":4461,"searched":4462,"duty":4463,"waste":4464,"downstairs":4465,"protest":4466,"##ograph":4467,"cred":4468,"unlo":4469,"intended":4470,"gy":4471,"peered":4472,"gal":4473,"dick":4474,"##mon":4475,"scott":4476,"escaped":4477,"mia":4478,"judge":4479,"birthday":4480,"causing":4481,"smaller":4482,"andrew":4483,"vers":4484,"guilty":4485,"whoever":4486,"puzz":4487,"various":4488,"shell":4489,"received":4490,"suspic":4491,"stunned":4492,"gabriel":4493,"##illing":4494,"plat":4495,"regular":4496,"##ec":4497,"tore":4498,"conc":4499,"desperately":4500,"climb":4501,"ja":4502,"settle":4503,"charac":4504,"derek":4505,"secrets":4506,"##osen":4507,"mail":4508,"balance":4509,"groan":4510,"##ino":4511,"##asha":4512,"##otic":4513,"##gy":4514,"chief":4515,"hissed":4516,"popped":4517,"egg":4518,"enjoying":4519,"brows":4520,"farther":4521,"civ":4522,"brian":4523,"lifting":4524,"nav":4525,"kim":4526,"soldier":4527,"##phone":4528,"begun":4529,"attacked":4530,"chamber":4531,"vel":4532,"et":4533,"pride":4534,"palms":4535,"chosen":4536,"hero":4537,"loving":4538,"professor":4539,"partner":4540,"pulse":4541,"sisters":4542,"ens":4543,"bags":4544,"amy":4545,"stepping":4546,"suspect":4547,"trapped":4548,"nin":4549,"##ram":4550,"alright":4551,"london":4552,"##cture":4553,"abruptly":4554,"aim":4555,"footst":4556,"disgust":4557,"returning":4558,"nurse":4559,"kend":4560,"collaps":4561,"kal":4562,"alarm":4563,"desce":4564,"wil":4565,"gesture":4566,"##amped":4567,"notes":4568,"surre":4569,"walks":4570,"bunch":4571,"students":4572,"bri":4573,"mum":4574,"terrified":4575,"explan":4576,"##rate":4577,"hal":4578,"capable":4579,"virg":4580,"##umed":4581,"drifted":4582,"dor":4583,"snat":4584,"formed":4585,"yanked":4586,"##ators":4587,"##cif":4588,"sip":4589,"caress":4590,"ladies":4591,"brill":4592,"cher":4593,"cute":4594,"##ases":4595,"landing":4596,"chloe":4597,"exhausted":4598,"sara":4599,"painful":4600,"muscle":4601,"won":4602,"display":4603,"rib":4604,"program":4605,"les":4606,"sensed":4607,"curse":4608,"sake":4609,"##kin":4610,"particularly":4611,"unex":4612,"intent":4613,"covering":4614,"perform":4615,"rode":4616,"##athy":4617,"mountains":4618,"lined":4619,"rule":4620,"rot":4621,"werew":4622,"##heart":4623,"circum":4624,"##itation":4625,"##fit":4626,"##bel":4627,"houses":4628,"ros":4629,"changing":4630,"bran":4631,"condition":4632,"##do":4633,"liter":4634,"shame":4635,"discuss":4636,"moan":4637,"##ushes":4638,"bond":4639,"rhy":4640,"acknow":4641,"marcus":4642,"##ology":4643,"larger":4644,"term":4645,"##what":4646,"##ffic":4647,"purple":4648,"glowing":4649,"underw":4650,"gazed":4651,"signs":4652,"concl":4653,"impat":4654,"prim":4655,"##ites":4656,"detail":4657,"shr":4658,"checking":4659,"echoed":4660,"shooting":4661,"blonde":4662,"uniform":4663,"grant":4664,"gage":4665,"vio":4666,"snorted":4667,"blaz":4668,"arrow":4669,"washed":4670,"licked":4671,"bullet":4672,"rip":4673,"##hip":4674,"##ulf":4675,"dogs":4676,"points":4677,"lied":4678,"garage":4679,"arched":4680,"gear":4681,"advantage":4682,"announced":4683,"straightened":4684,"footsteps":4685,"init":4686,"chocol":4687,"hast":4688,"ai":4689,"embarrassed":4690,"##ales":4691,"approach":4692,"##apping":4693,"cutting":4694,"##ption":4695,"fingert":4696,"vanished":4697,"encou":4698,"mental":4699,"total":4700,"ugly":4701,"collar":4702,"mask":4703,"sooner":4704,"confident":4705,"raced":4706,"tower":4707,"vin":4708,"##ache":4709,"raw":4710,"20":4711,"deserve":4712,"raise":4713,"##ule":4714,"##ception":4715,"halfway":4716,"gav":4717,"sofa":4718,"##asc":4719,"retreat":4720,"butter":4721,"according":4722,"##ught":4723,"##ishment":4724,"##walk":4725,"tables":4726,"bowl":4727,"contract":4728,"holds":4729,"devil":4730,"numbers":4731,"violet":4732,"sheet":4733,"##umping":4734,"##aker":4735,"neighbor":4736,"##vor":4737,"occup":4738,"##zing":4739,"##rif":4740,"filling":4741,"frag":4742,"matters":4743,"steve":4744,"der":4745,"victoria":4746,"morgan":4747,"tense":4748,"lies":4749,"mumbled":4750,"satur":4751,"task":4752,"catching":4753,"caleb":4754,"moves":4755,"convince":4756,"electric":4757,"exit":4758,"##wards":4759,"throughout":4760,"wink":4761,"clearing":4762,"alley":4763,"intellig":4764,"connected":4765,"likes":4766,"carl":4767,"everybody":4768,"price":4769,"journey":4770,"inner":4771,"riding":4772,"lauren":4773,"lucy":4774,"stal":4775,"alco":4776,"destroyed":4777,"insane":4778,"##ico":4779,"##iety":4780,"##uts":4781,"##place":4782,"bench":4783,"whispers":4784,"steal":4785,"remaining":4786,"jax":4787,"silly":4788,"opin":4789,"maggie":4790,"fel":4791,"##otte":4792,"##mission":4793,"org":4794,"drown":4795,"sway":4796,"nap":4797,"appearance":4798,"paying":4799,"jere":4800,"deg":4801,"havent":4802,"vide":4803,"bob":4804,"rope":4805,"poison":4806,"tapped":4807,"soci":4808,"ratt":4809,"tex":4810,"gestured":4811,"##ago":4812,"dumb":4813,"detective":4814,"perio":4815,"haw":4816,"grinning":4817,"protection":4818,"billy":4819,"served":4820,"slapped":4821,"forcing":4822,"trace":4823,"file":4824,"item":4825,"profession":4826,"##vet":4827,"frightened":4828,"games":4829,"clar":4830,"social":4831,"harry":4832,"surrounding":4833,"lust":4834,"keeps":4835,"##elled":4836,"##hern":4837,"##eg":4838,"tray":4839,"bang":4840,"balls":4841,"cousin":4842,"speech":4843,"##erie":4844,"##met":4845,"##aky":4846,"specif":4847,"images":4848,"ep":4849,"challenge":4850,"fabric":4851,"##lu":4852,"tough":4853,"wrote":4854,"##han":4855,"shade":4856,"##bbled":4857,"sunlight":4858,"manner":4859,"decor":4860,"etern":4861,"pattern":4862,"guessed":4863,"president":4864,"hunting":4865,"##raw":4866,"##inger":4867,"##ona":4868,"recently":4869,"argue":4870,"##awk":4871,"enorm":4872,"senses":4873,"punch":4874,"seeming":4875,"strike":4876,"lur":4877,"style":4878,"painted":4879,"urg":4880,"##hetic":4881,"eased":4882,"cooper":4883,"##ints":4884,"dang":4885,"unexp":4886,"smith":4887,"loves":4888,"hitting":4889,"##bble":4890,"pee":4891,"##iring":4892,"tristan":4893,"symp":4894,"trained":4895,"struggling":4896,"sounding":4897,"charles":4898,"vul":4899,"vehicle":4900,"satisfied":4901,"drank":4902,"holly":4903,"traffic":4904,"packed":4905,"neat":4906,"##oop":4907,"exclaimed":4908,"afford":4909,"sharply":4910,"tam":4911,"lone":4912,"ourselves":4913,"unexpected":4914,"##pher":4915,"source":4916,"experienced":4917,"hay":4918,"dining":4919,"request":4920,"##ads":4921,"net":4922,"haul":4923,"##eze":4924,"dean":4925,"dismiss":4926,"##onscious":4927,"##kn":4928,"crystal":4929,"sched":4930,"member":4931,"autom":4932,"drug":4933,"circumst":4934,"chocolate":4935,"stroked":4936,"##ran":4937,"liquid":4938,"copy":4939,"driveway":4940,"friendly":4941,"colored":4942,"caut":4943,"##atically":4944,"flin":4945,"occurred":4946,"vague":4947,"cops":4948,"##asket":4949,"closely":4950,"##ordan":4951,"fellow":4952,"haunt":4953,"##agon":4954,"gasp":4955,"##unched":4956,"mult":4957,"##urs":4958,"sid":4959,"jonathan":4960,"impress":4961,"arrange":4962,"letters":4963,"##oy":4964,"weve":4965,"inqu":4966,"wrap":4967,"louder":4968,"gran":4969,"remembering":4970,"##cell":4971,"cliff":4972,"cursed":4973,"explanation":4974,"encoun":4975,"patted":4976,"washing":4977,"somewhat":4978,"scramb":4979,"##ait":4980,"hmm":4981,"unh":4982,"alec":4983,"replaced":4984,"conce":4985,"##emon":4986,"palace":4987,"blink":4988,"bothered":4989,"toes":4990,"##imm":4991,"##don":4992,"statement":4993,"ske":4994,"theyd":4995,"purs":4996,"snap":4997,"##ounce":4998,"lightning":4999,"##ylan":5000,"acqu":5001,"research":5002,"invis":5003,"tap":5004,"##stand":5005,"wren":5006,"connect":5007,"assume":5008,"slowed":5009,"royal":5010,"location":5011,"possess":5012,"cloth":5013,"dull":5014,"dollars":5015,"shore":5016,"bread":5017,"##rous":5018,"##rib":5019,"flu":5020,"casual":5021,"##atherine":5022,"design":5023,"section":5024,"possibility":5025,"ere":5026,"crime":5027,"series":5028,"##ruction":5029,"##ients":5030,"behav":5031,"existence":5032,"##cies":5033,"fasc":5034,"##riff":5035,"raven":5036,"danny":5037,"garion":5038,"whist":5039,"charlotte":5040,"reser":5041,"nodding":5042,"intens":5043,"responsible":5044,"collect":5045,"hundreds":5046,"former":5047,"moaned":5048,"racing":5049,"paint":5050,"pleasant":5051,"##rier":5052,"enth":5053,"evan":5054,"link":5055,"##aves":5056,"clue":5057,"constant":5058,"contr":5059,"teach":5060,"avail":5061,"disbel":5062,"plant":5063,"unus":5064,"bored":5065,"werent":5066,"pisto":5067,"fangs":5068,"falls":5069,"##eral":5070,"bord":5071,"ess":5072,"distracted":5073,"previous":5074,"genu":5075,"##inkled":5076,"drum":5077,"eyel":5078,"##lan":5079,"sacrif":5080,"kidding":5081,"##certain":5082,"noted":5083,"issue":5084,"trusted":5085,"emerg":5086,"squeeze":5087,"##amps":5088,"grasp":5089,"nails":5090,"abandoned":5091,"##lle":5092,"drinks":5093,"confidence":5094,"stall":5095,"teasing":5096,"ax":5097,"lee":5098,"attached":5099,"bleeding":5100,"##otted":5101,"##ado":5102,"curios":5103,"ast":5104,"fence":5105,"goddam":5106,"cigarette":5107,"saturday":5108,"agreement":5109,"##gger":5110,"studying":5111,"laughs":5112,"stops":5113,"sexual":5114,"colon":5115,"rig":5116,"sport":5117,"humor":5118,"television":5119,"fake":5120,"##ended":5121,"complic":5122,"veins":5123,"trailed":5124,"pockets":5125,"clas":5126,"cere":5127,"threatened":5128,"alice":5129,"ellie":5130,"holiday":5131,"goodby":5132,"code":5133,"amused":5134,"extremely":5135,"##rating":5136,"10":5137,"property":5138,"##arest":5139,"wing":5140,"cage":5141,"arrest":5142,"##bled":5143,"runs":5144,"yards":5145,"colin":5146,"sophie":5147,"tank":5148,"carpet":5149,"##eline":5150,"amanda":5151,"mall":5152,"strode":5153,"panties":5154,"prevent":5155,"##olf":5156,"drake":5157,"##jected":5158,"genuine":5159,"serge":5160,"##rey":5161,"zomb":5162,"restr":5163,"disappointed":5164,"##asty":5165,"sunday":5166,"sheets":5167,"env":5168,"##ata":5169,"shrug":5170,"wicked":5171,"haired":5172,"fred":5173,"lace":5174,"extended":5175,"##ulation":5176,"jacob":5177,"univers":5178,"dw":5179,"offering":5180,"mans":5181,"diss":5182,"martin":5183,"murd":5184,"##coming":5185,"ri":5186,"seated":5187,"zach":5188,"amber":5189,"sarc":5190,"slipping":5191,"kay":5192,"sees":5193,"dylan":5194,"compet":5195,"claws":5196,"exposed":5197,"kevin":5198,"hannah":5199,"todd":5200,"deserved":5201,"raising":5202,"contain":5203,"barn":5204,"core":5205,"medic":5206,"original":5207,"covers":5208,"bowed":5209,"maintain":5210,"gown":5211,"finn":5212,"susan":5213,"diam":5214,"flame":5215,"medical":5216,"rifle":5217,"sevent":5218,"withd":5219,"vall":5220,"amuse":5221,"##rete":5222,"grief":5223,"ships":5224,"gavin":5225,"period":5226,"sheriff":5227,"fingertips":5228,"enormous":5229,"universe":5230,"##isy":5231,"tub":5232,"parted":5233,"##andra":5234,"centuries":5235,"wise":5236,"justin":5237,"wan":5238,"eli":5239,"##we":5240,"immort":5241,"curiosity":5242,"exec":5243,"freedom":5244,"##ato":5245,"hook":5246,"sole":5247,"surve":5248,"thousands":5249,"##lock":5250,"##ero":5251,"feared":5252,"##atively":5253,"anybody":5254,"nerves":5255,"##ugg":5256,"vulner":5257,"happiness":5258,"##aren":5259,"##ta":5260,"background":5261,"belonged":5262,"hopefully":5263,"##aping":5264,"##field":5265,"swallow":5266,"shy":5267,"swing":5268,"mile":5269,"tend":5270,"##vation":5271,"midnight":5272,"##olas":5273,"adult":5274,"tax":5275,"birds":5276,"beard":5277,"ends":5278,"wolves":5279,"scru":5280,"##und":5281,"jordan":5282,"squir":5283,"invisible":5284,"##atory":5285,"##pack":5286,"shuddered":5287,"brilliant":5288,"nipp":5289,"##org":5290,"visible":5291,"purch":5292,"##umble":5293,"##uted":5294,"loyal":5295,"spending":5296,"monst":5297,"##cle":5298,"shuff":5299,"shorts":5300,"robe":5301,"friday":5302,"realizing":5303,"##bl":5304,"##ples":5305,"shining":5306,"paris":5307,"##hawk":5308,"allowing":5309,"express":5310,"kyle":5311,"interview":5312,"##aud":5313,"bud":5314,"##back":5315,"civil":5316,"answering":5317,"rab":5318,"stated":5319,"russ":5320,"##inda":5321,"delicate":5322,"nervously":5323,"##beat":5324,"passenger":5325,"span":5326,"market":5327,"jerk":5328,"deliber":5329,"kelly":5330,"daemon":5331,"collapsed":5332,"warriors":5333,"nud":5334,"claimed":5335,"##uce":5336,"shivered":5337,"ais":5338,"spinning":5339,"retrie":5340,"thread":5341,"approaching":5342,"remark":5343,"gwen":5344,"##iter":5345,"arent":5346,"dating":5347,"accent":5348,"##nat":5349,"advice":5350,"shown":5351,"desert":5352,"assass":5353,"hurting":5354,"invited":5355,"rhyth":5356,"bolt":5357,"horiz":5358,"emerged":5359,"serve":5360,"##iven":5361,"guests":5362,"stones":5363,"stubb":5364,"actions":5365,"choked":5366,"bart":5367,"required":5368,"##bly":5369,"lev":5370,"rushing":5371,"darling":5372,"quit":5373,"video":5374,"cris":5375,"pow":5376,"wrists":5377,"expensive":5378,"overhead":5379,"##dle":5380,"##rett":5381,"screams":5382,"defense":5383,"chann":5384,"entertain":5385,"crawled":5386,"champ":5387,"photo":5388,"complex":5389,"trap":5390,"##rant":5391,"muff":5392,"##uel":5393,"proceed":5394,"ache":5395,"exploded":5396,"##fl":5397,"##anches":5398,"flicked":5399,"tracks":5400,"##mi":5401,"precious":5402,"jenny":5403,"vent":5404,"##vert":5405,"alcohol":5406,"eleven":5407,"intention":5408,"ult":5409,"creep":5410,"marks":5411,"uncertain":5412,"digging":5413,"opinion":5414,"tuck":5415,"states":5416,"freak":5417,"mortal":5418,"scanned":5419,"actual":5420,"ras":5421,"shif":5422,"commander":5423,"courage":5424,"spare":5425,"##ode":5426,"##sequ":5427,"jun":5428,"roland":5429,"drugs":5430,"myster":5431,"hunger":5432,"shopping":5433,"revealed":5434,"##chan":5435,"society":5436,"spect":5437,"circumstances":5438,"lately":5439,"coast":5440,"spear":5441,"bars":5442,"bomb":5443,"jet":5444,"knelt":5445,"knuck":5446,"##orter":5447,"depth":5448,"eaten":5449,"laz":5450,"progress":5451,"passage":5452,"bye":5453,"concrete":5454,"daz":5455,"matthew":5456,"lan":5457,"dante":5458,"johnny":5459,"jol":5460,"##eness":5461,"##icles":5462,"##chie":5463,"##nal":5464,"jackson":5465,"gathering":5466,"wounds":5467,"official":5468,"lover":5469,"##ooped":5470,"department":5471,"mud":5472,"mixed":5473,"sandw":5474,"beam":5475,"brave":5476,"bubb":5477,"drops":5478,"##hh":5479,"ham":5480,"##pan":5481,"flushed":5482,"communic":5483,"stern":5484,"betray":5485,"virgin":5486,"rhythm":5487,"colt":5488,"sits":5489,"jeremy":5490,"breaths":5491,"jenn":5492,"scare":5493,"cord":5494,"saving":5495,"fairly":5496,"motioned":5497,"scient":5498,"cards":5499,"shouting":5500,"crash":5501,"tasted":5502,"character":5503,"excell":5504,"dagger":5505,"symb":5506,"elder":5507,"deny":5508,"delicious":5509,"dragging":5510,"rat":5511,"informed":5512,"annoyed":5513,"trunk":5514,"feather":5515,"##zzy":5516,"fog":5517,"knocking":5518,"ava":5519,"dude":5520,"embrace":5521,"helen":5522,"boot":5523,"amusement":5524,"moder":5525,"magaz":5526,"motor":5527,"punched":5528,"anton":5529,"unkn":5530,"patient":5531,"##iture":5532,"ripp":5533,"az":5534,"tyler":5535,"devon":5536,"stubborn":5537,"teased":5538,"waving":5539,"secure":5540,"dave":5541,"puff":5542,"cit":5543,"scen":5544,"##eds":5545,"brushing":5546,"trad":5547,"remains":5548,"gul":5549,"pra":5550,"bike":5551,"glances":5552,"option":5553,"##ample":5554,"whit":5555,"credit":5556,"create":5557,"corners":5558,"branches":5559,"clary":5560,"##illa":5561,"nest":5562,"aye":5563,"terms":5564,"##ores":5565,"singing":5566,"glit":5567,"famil":5568,"diamond":5569,"airport":5570,"##ige":5571,"##uous":5572,"leans":5573,"disbelief":5574,"colors":5575,"yep":5576,"foolish":5577,"dal":5578,"ruth":5579,"flow":5580,"goodbye":5581,"revealing":5582,"ribs":5583,"dee":5584,"reaches":5585,"shattered":5586,"ideas":5587,"##oms":5588,"addition":5589,"lor":5590,"mack":5591,"##esome":5592,"prompt":5593,"sparhawk":5594,"##bur":5595,"reveal":5596,"kane":5597,"basket":5598,"marked":5599,"random":5600,"pages":5601,"available":5602,"behavior":5603,"rapidly":5604,"##imate":5605,"grandp":5606,"lux":5607,"vic":5608,"shaped":5609,"boxes":5610,"##reek":5611,"winked":5612,"##usi":5613,"hid":5614,"till":5615,"tighter":5616,"roar":5617,"stead":5618,"chicken":5619,"switch":5620,"furniture":5621,"symbol":5622,"accompl":5623,"ps":5624,"que":5625,"melissa":5626,"vast":5627,"bust":5628,"wishing":5629,"impro":5630,"amel":5631,"click":5632,"trevor":5633,"##olen":5634,"confront":5635,"seats":5636,"pistol":5637,"julie":5638,"wrapping":5639,"precise":5640,"incredible":5641,"pity":5642,"content":5643,"survived":5644,"##ex":5645,"dealing":5646,"biggest":5647,"begins":5648,"unconscious":5649,"##py":5650,"##asper":5651,"whipped":5652,"milk":5653,"lin":5654,"opens":5655,"remote":5656,"##ability":5657,"circles":5658,"armed":5659,"edges":5660,"shane":5661,"scattered":5662,"jean":5663,"furious":5664,"##ament":5665,"crept":5666,"##ooks":5667,"shifting":5668,"changes":5669,"march":5670,"skills":5671,"##urally":5672,"trade":5673,"##die":5674,"clutched":5675,"handful":5676,"trem":5677,"stock":5678,"quinn":5679,"cocked":5680,"quarter":5681,"appl":5682,"sleeve":5683,"photograph":5684,"remove":5685,"newsp":5686,"proof":5687,"anxious":5688,"dod":5689,"calmly":5690,"argument":5691,"growl":5692,"jail":5693,"wre":5694,"impressed":5695,"kicking":5696,"tipped":5697,"##oud":5698,"mason":5699,"placing":5700,"appoint":5701,"provided":5702,"##itar":5703,"sentence":5704,"miser":5705,"rent":5706,"appe":5707,"insist":5708,"##gen":5709,"career":5710,"##iger":5711,"minds":5712,"alert":5713,"satisfaction":5714,"spat":5715,"equip":5716,"sidewalk":5717,"grunted":5718,"youd":5719,"##oph":5720,"treated":5721,"student":5722,"literally":5723,"##aph":5724,"version":5725,"football":5726,"apologize":5727,"range":5728,"impression":5729,"stretch":5730,"makeup":5731,"roger":5732,"nope":5733,"jill":5734,"##lights":5735,"valley":5736,"winced":5737,"joseph":5738,"adjust":5739,"habit":5740,"threatening":5741,"##oon":5742,"emergency":5743,"##nda":5744,"##lling":5745,"exchange":5746,"ny":5747,"##ila":5748,"barb":5749,"driven":5750,"nasty":5751,"emotional":5752,"##gue":5753,"gang":5754,"learning":5755,"unusual":5756,"eighteen":5757,"puts":5758,"fourth":5759,"sweetheart":5760,"arrive":5761,"wy":5762,"families":5763,"weal":5764,"miranda":5765,"goddess":5766,"danced":5767,"##uments":5768,"marie":5769,"pear":5770,"enthusi":5771,"climbing":5772,"fi":5773,"freaking":5774,"enemies":5775,"repres":5776,"##tery":5777,"##shit":5778,"##lass":5779,"individ":5780,"roared":5781,"sneak":5782,"coach":5783,"resol":5784,"patrick":5785,"throne":5786,"upward":5787,"equipment":5788,"rescue":5789,"##fall":5790,"oil":5791,"duncan":5792,"asp":5793,"sire":5794,"lawyer":5795,"##urance":5796,"##encer":5797,"wiz":5798,"crown":5799,"role":5800,"cupped":5801,"lun":5802,"jessica":5803,"defend":5804,"cough":5805,"stolen":5806,"cult":5807,"##ano":5808,"based":5809,"##tt":5810,"struggle":5811,"advent":5812,"floating":5813,"crossing":5814,"hollow":5815,"greeted":5816,"intend":5817,"##ops":5818,"ducked":5819,"sugar":5820,"closest":5821,"##ford":5822,"helpless":5823,"stagg":5824,"ky":5825,"rome":5826,"illum":5827,"kin":5828,"fet":5829,"mothers":5830,"directions":5831,"inn":5832,"##com":5833,"edward":5834,"officers":5835,"wounded":5836,"katie":5837,"hank":5838,"mont":5839,"##hens":5840,"ruin":5841,"upright":5842,"shortly":5843,"mattress":5844,"anticipation":5845,"separate":5846,"heather":5847,"lobby":5848,"owner":5849,"dried":5850,"##impse":5851,"glimpse":5852,"contem":5853,"crad":5854,"relig":5855,"##mate":5856,"cloak":5857,"cheese":5858,"jumping":5859,"brut":5860,"anne":5861,"movements":5862,"frost":5863,"drawer":5864,"giggled":5865,"gym":5866,"heartbeat":5867,"##ville":5868,"unknown":5869,"sab":5870,"lucien":5871,"shots":5872,"excellent":5873,"alexander":5874,"nearest":5875,"charged":5876,"crashed":5877,"frustrated":5878,"realm":5879,"shove":5880,"biting":5881,"ox":5882,"halt":5883,"aston":5884,"##oul":5885,"strip":5886,"brit":5887,"rod":5888,"prick":5889,"##umn":5890,"isa":5891,"darted":5892,"alien":5893,"adrian":5894,"backpack":5895,"fruit":5896,"snake":5897,"sadness":5898,"perman":5899,"century":5900,"##gun":5901,"awesome":5902,"quiver":5903,"jesse":5904,"##ffed":5905,"twin":5906,"##wor":5907,"sixteen":5908,"begged":5909,"curve":5910,"##rowed":5911,"obe":5912,"duke":5913,"oak":5914,"cruel":5915,"discover":5916,"stuffed":5917,"##tail":5918,"ruined":5919,"sail":5920,"percent":5921,"deadly":5922,"jewel":5923,"rarely":5924,"casually":5925,"scout":5926,"gem":5927,"swore":5928,"chic":5929,"sele":5930,"bac":5931,"disappointment":5932,"gradu":5933,"##xed":5934,"ze":5935,"yelling":5936,"professional":5937,"##mar":5938,"impact":5939,"shows":5940,"torture":5941,"ending":5942,"snarled":5943,"mama":5944,"happily":5945,"territ":5946,"##ctors":5947,"erupt":5948,"mattered":5949,"##fire":5950,"##li":5951,"garrett":5952,"##oning":5953,"ought":5954,"suspicious":5955,"##ifer":5956,"mi":5957,"elena":5958,"alt":5959,"wandered":5960,"twisting":5961,"clicked":5962,"owe":5963,"eur":5964,"##ika":5965,"##erence":5966,"glor":5967,"crowded":5968,"limbs":5969,"##hem":5970,"##inating":5971,"fathers":5972,"mild":5973,"radi":5974,"owned":5975,"scri":5976,"agony":5977,"##isions":5978,"trash":5979,"stef":5980,"booth":5981,"pretending":5982,"permission":5983,"##ulated":5984,"##oci":5985,"injured":5986,"mechan":5987,"tempor":5988,"potential":5989,"aching":5990,"##venge":5991,"armor":5992,"gain":5993,"##ulate":5994,"pizz":5995,"boun":5996,"flashing":5997,"##ilet":5998,"absor":5999,"guide":6000,"pig":6001,"stress":6002,"molly":6003,"provide":6004,"vulnerable":6005,"swiftly":6006,"folks":6007,"site":6008,"university":6009,"aust":6010,"##aries":6011,"sergeant":6012,"##ingly":6013,"ez":6014,"cleaning":6015,"straw":6016,"aver":6017,"##avier":6018,"##gment":6019,"sophia":6020,"marg":6021,"kendra":6022,"moist":6023,"##stone":6024,"elbows":6025,"stares":6026,"##bi":6027,"recent":6028,"##reg":6029,"kingdom":6030,"patch":6031,"sharing":6032,"##itty":6033,"meg":6034,"sucking":6035,"leapt":6036,"aidan":6037,"dism":6038,"crouched":6039,"pounded":6040,"##iona":6041,"blowing":6042,"basement":6043,"mystery":6044,"stole":6045,"spencer":6046,"forces":6047,"##aron":6048,"sideways":6049,"existed":6050,"bullshit":6051,"sout":6052,"ashe":6053,"nu":6054,"imper":6055,"string":6056,"babe":6057,"stroke":6058,"gide":6059,"tay":6060,"individual":6061,"tessa":6062,"gates":6063,"influ":6064,"tape":6065,"##yard":6066,"orgasm":6067,"sensitive":6068,"affection":6069,"viv":6070,"audience":6071,"thorough":6072,"revol":6073,"##osing":6074,"marble":6075,"##rily":6076,"movies":6077,"##riate":6078,"##arse":6079,"owen":6080,"##ension":6081,"aria":6082,"lawn":6083,"scary":6084,"attempted":6085,"##ggy":6086,"mob":6087,"doubted":6088,"scrambled":6089,"swinging":6090,"##iana":6091,"violent":6092,"##lings":6093,"##aline":6094,"acted":6095,"shrie":6096,"##uded":6097,"arranged":6098,"healing":6099,"modern":6100,"stack":6101,"holden":6102,"possessed":6103,"surge":6104,"greater":6105,"monday":6106,"chances":6107,"associ":6108,"health":6109,"entry":6110,"tensed":6111,"lamp":6112,"##hand":6113,"reluctantly":6114,"reception":6115,"estab":6116,"##oops":6117,"frowning":6118,"bor":6119,"##da":6120,"hesitation":6121,"horizon":6122,"positive":6123,"fancy":6124,"endless":6125,"patience":6126,"alph":6127,"kinds":6128,"dece":6129,"salt":6130,"eleg":6131,"begging":6132,"rate":6133,"chaos":6134,"therefore":6135,"cake":6136,"flowing":6137,"##hole":6138,"confirmed":6139,"whispering":6140,"dow":6141,"gideon":6142,"volunt":6143,"unsure":6144,"suc":6145,"##etic":6146,"signal":6147,"mercy":6148,"maid":6149,"useless":6150,"candle":6151,"##va":6152,"sty":6153,"hunters":6154,"complicated":6155,"lonely":6156,"hills":6157,"sant":6158,"##aid":6159,"grandma":6160,"darkened":6161,"##uary":6162,"fled":6163,"clan":6164,"incredibly":6165,"clutching":6166,"craft":6167,"souls":6168,"sheer":6169,"frequ":6170,"lane":6171,"photos":6172,"youth":6173,"raz":6174,"##erald":6175,"rings":6176,"##rom":6177,"atl":6178,"mered":6179,"gabe":6180,"buddy":6181,"las":6182,"romantic":6183,"assistant":6184,"trembled":6185,"ned":6186,"melted":6187,"sore":6188,"##rin":6189,"flower":6190,"##esty":6191,"meredith":6192,"succeed":6193,"apr":6194,"contents":6195,"##alie":6196,"resem":6197,"spilled":6198,"reflection":6199,"slo":6200,"##armed":6201,"classes":6202,"supplies":6203,"##cra":6204,"community":6205,"laura":6206,"ragged":6207,"famous":6208,"mand":6209,"waking":6210,"rude":6211,"tara":6212,"consequ":6213,"traveled":6214,"incident":6215,"curved":6216,"lic":6217,"meth":6218,"seek":6219,"crit":6220,"##omp":6221,"appears":6222,"steam":6223,"##spect":6224,"constantly":6225,"carved":6226,"##raged":6227,"shiny":6228,"bol":6229,"envel":6230,"kh":6231,"route":6232,"neighborhood":6233,"smoot":6234,"tro":6235,"fairy":6236,"envelope":6237,"##bor":6238,"lod":6239,"##nis":6240,"sinc":6241,"backs":6242,"aloud":6243,"bald":6244,"useful":6245,"snatched":6246,"explosion":6247,"syd":6248,"18":6249,"##icy":6250,"stark":6251,"##ya":6252,"decent":6253,"attitude":6254,"angle":6255,"prepare":6256,"magical":6257,"spray":6258,"loaded":6259,"contempl":6260,"season":6261,"moonlight":6262,"expert":6263,"needing":6264,"bride":6265,"cleaned":6266,"dipped":6267,"knuckles":6268,"intensity":6269,"##isc":6270,"blocks":6271,"soaked":6272,"lisa":6273,"thus":6274,"captured":6275,"false":6276,"america":6277,"werewolf":6278,"weakness":6279,"breasts":6280,"ached":6281,"polite":6282,"protected":6283,"##itable":6284,"ton":6285,"exhaust":6286,"##mist":6287,"violence":6288,"highway":6289,"hired":6290,"mane":6291,"plung":6292,"pouring":6293,"pinned":6294,"issues":6295,"physically":6296,"typ":6297,"suffer":6298,"yawn":6299,"smirk":6300,"items":6301,"swell":6302,"imagination":6303,"neckl":6304,"##anor":6305,"loos":6306,"##immed":6307,"shimm":6308,"admir":6309,"##hold":6310,"attractive":6311,"wherever":6312,"ordinary":6313,"screwed":6314,"heated":6315,"hyp":6316,"charm":6317,"friendship":6318,"stiffened":6319,"central":6320,"curls":6321,"boring":6322,"bits":6323,"ped":6324,"dripping":6325,"vig":6326,"reck":6327,"slumped":6328,"swords":6329,"healthy":6330,"##vy":6331,"shaft":6332,"andre":6333,"prior":6334,"forb":6335,"scowled":6336,"py":6337,"doug":6338,"innoc":6339,"##rison":6340,"sons":6341,"spite":6342,"theory":6343,"flung":6344,"inse":6345,"jessie":6346,"##ollen":6347,"rag":6348,"##attering":6349,"wipe":6350,"grimaced":6351,"stirred":6352,"figures":6353,"stroking":6354,"declared":6355,"##ele":6356,"wire":6357,"zoe":6358,"contained":6359,"fond":6360,"##boy":6361,"eggs":6362,"laptop":6363,"pizza":6364,"swollen":6365,"hurts":6366,"stool":6367,"spit":6368,"tips":6369,"nipple":6370,"arrog":6371,"bun":6372,"twins":6373,"clung":6374,"jimmy":6375,"branch":6376,"suffering":6377,"stained":6378,"sticking":6379,"trigger":6380,"overl":6381,"proved":6382,"safely":6383,"lesson":6384,"warn":6385,"dram":6386,"earn":6387,"lil":6388,"##hest":6389,"scarlet":6390,"traveling":6391,"device":6392,"signific":6393,"properly":6394,"nich":6395,"mik":6396,"gripping":6397,"sheep":6398,"estate":6399,"ral":6400,"tries":6401,"od":6402,"fears":6403,"##ji":6404,"spreading":6405,"brandon":6406,"dish":6407,"compared":6408,"science":6409,"separated":6410,"lifet":6411,"responsibility":6412,"servants":6413,"murdered":6414,"##ada":6415,"waters":6416,"icy":6417,"rocked":6418,"isaac":6419,"scree":6420,"suite":6421,"highly":6422,"utterly":6423,"signed":6424,"chuckle":6425,"11":6426,"holes":6427,"delivered":6428,"sel":6429,"balc":6430,"dwar":6431,"shap":6432,"12":6433,"maria":6434,"sweater":6435,"pilot":6436,"jennifer":6437,"childhood":6438,"occasionally":6439,"karen":6440,"escort":6441,"##idy":6442,"drained":6443,"stefan":6444,"troll":6445,"rav":6446,"jar":6447,"brings":6448,"##ums":6449,"naturally":6450,"personally":6451,"pir":6452,"planted":6453,"annie":6454,"altern":6455,"rit":6456,"german":6457,"daisy":6458,"tearing":6459,"rounded":6460,"justice":6461,"waitress":6462,"arrival":6463,"crushed":6464,"spirits":6465,"clever":6466,"syl":6467,"##var":6468,"element":6469,"##rees":6470,"##inding":6471,"blocked":6472,"aaron":6473,"##mes":6474,"ringing":6475,"ryder":6476,"backwards":6477,"fields":6478,"ankle":6479,"kr":6480,"funeral":6481,"mug":6482,"preferred":6483,"courty":6484,"balcony":6485,"exchanged":6486,"##cast":6487,"foreign":6488,"crawl":6489,"lick":6490,"toe":6491,"##kins":6492,"refuse":6493,"lump":6494,"surprisingly":6495,"client":6496,"educ":6497,"##ua":6498,"jenks":6499,"gn":6500,"continues":6501,"bark":6502,"##erc":6503,"protecting":6504,"subst":6505,"corp":6506,"##umph":6507,"chicago":6508,"haz":6509,"sally":6510,"overwhelming":6511,"unp":6512,"novel":6513,"cries":6514,"smirked":6515,"bi":6516,"unit":6517,"oliver":6518,"mae":6519,"swip":6520,"adren":6521,"traced":6522,"wildly":6523,"##bbie":6524,"shone":6525,"dall":6526,"slave":6527,"nort":6528,"##hin":6529,"journal":6530,"apple":6531,"distinct":6532,"wiping":6533,"##antha":6534,"tat":6535,"##rik":6536,"dragons":6537,"della":6538,"eh":6539,"ree":6540,"cheap":6541,"ak":6542,"melo":6543,"rey":6544,"flag":6545,"sought":6546,"fork":6547,"repeat":6548,"pony":6549,"exhaled":6550,"carter":6551,"director":6552,"taylor":6553,"sets":6554,"quarters":6555,"inspect":6556,"kidna":6557,"pete":6558,"##ely":6559,"gloves":6560,"charming":6561,"strangely":6562,"##****":6563,"assign":6564,"tate":6565,"nerve":6566,"introduced":6567,"##bal":6568,"kir":6569,"approp":6570,"discussion":6571,"rack":6572,"selfish":6573,"staircase":6574,"nan":6575,"shelter":6576,"revenge":6577,"stretching":6578,"panting":6579,"carriage":6580,"thirteen":6581,"kings":6582,"nail":6583,"divor":6584,"##omi":6585,"sang":6586,"sofia":6587,"platform":6588,"hanna":6589,"acknowled":6590,"##zie":6591,"corn":6592,"avoiding":6593,"companion":6594,"##iable":6595,"preparing":6596,"shouldnt":6597,"protective":6598,"##bre":6599,"magnus":6600,"##ddled":6601,"vincent":6602,"princ":6603,"gentleman":6604,"tomm":6605,"limp":6606,"leads":6607,"louis":6608,"transfer":6609,"angels":6610,"bend":6611,"cotton":6612,"citiz":6613,"ker":6614,"jude":6615,"surrender":6616,"ba":6617,"knot":6618,"aiden":6619,"tradition":6620,"anxiety":6621,"plu":6622,"manip":6623,"##iece":6624,"terrif":6625,"questioned":6626,"scars":6627,"mysterious":6628,"pounds":6629,"anth":6630,"##iqu":6631,"stan":6632,"slamming":6633,"entering":6634,"courtyard":6635,"concentrate":6636,"dorm":6637,"switched":6638,"taller":6639,"leon":6640,"damon":6641,"doctors":6642,"andy":6643,"puzzled":6644,"##natural":6645,"circled":6646,"flowed":6647,"dreamed":6648,"spider":6649,"tooth":6650,"strained":6651,"hooked":6652,"lege":6653,"spraw":6654,"gregor":6655,"mentally":6656,"observed":6657,"necklace":6658,"soothing":6659,"privacy":6660,"heel":6661,"##veled":6662,"bottles":6663,"brace":6664,"candy":6665,"##icop":6666,"function":6667,"crashing":6668,"velvet":6669,"calif":6670,"brid":6671,"grabs":6672,"laws":6673,"homes":6674,"##iar":6675,"##alled":6676,"nostr":6677,"suffered":6678,"stake":6679,"hopes":6680,"cooking":6681,"schedule":6682,"plates":6683,"bold":6684,"ador":6685,"shay":6686,"flickered":6687,"dise":6688,"##mn":6689,"ing":6690,"bullets":6691,"dock":6692,"goss":6693,"coinc":6694,"fourteen":6695,"squeezing":6696,"miracle":6697,"##off":6698,"##idently":6699,"located":6700,"routine":6701,"mistress":6702,"tale":6703,"bounced":6704,"chains":6705,"prey":6706,"messages":6707,"affect":6708,"babies":6709,"directed":6710,"slap":6711,"mex":6712,"goddamn":6713,"haven":6714,"hatred":6715,"californ":6716,"immediate":6717,"wigg":6718,"miserable":6719,"tossing":6720,"degree":6721,"interior":6722,"hearts":6723,"flip":6724,"tangled":6725,"slick":6726,"monsters":6727,"europe":6728,"latest":6729,"instructions":6730,"eternity":6731,"sadly":6732,"slim":6733,"aimed":6734,"muffled":6735,"nina":6736,"ked":6737,"helicop":6738,"ginger":6739,"accompan":6740,"micro":6741,"cautiously":6742,"buttons":6743,"##ini":6744,"##inged":6745,"included":6746,"trial":6747,"commanded":6748,"legal":6749,"##izes":6750,"finds":6751,"erin":6752,"valent":6753,"roman":6754,"smells":6755,"volunte":6756,"terr":6757,"reput":6758,"los":6759,"consciousness":6760,"melan":6761,"punishment":6762,"toast":6763,"damien":6764,"arc":6765,"##izzy":6766,"seeking":6767,"talent":6768,"equally":6769,"15":6770,"flashlight":6771,"ware":6772,"intelligence":6773,"duck":6774,"aug":6775,"##eday":6776,"dex":6777,"someday":6778,"##bow":6779,"flared":6780,"whim":6781,"floated":6782,"swimming":6783,"greatest":6784,"toilet":6785,"tack":6786,"structure":6787,"len":6788,"invitation":6789,"oblig":6790,"##inate":6791,"nad":6792,"visited":6793,"labor":6794,"##utton":6795,"grasped":6796,"daily":6797,"leo":6798,"##lers":6799,"shoving":6800,"bobby":6801,"scratched":6802,"cases":6803,"obsc":6804,"questioning":6805,"##win":6806,"currently":6807,"handing":6808,"calcul":6809,"squad":6810,"rolls":6811,"lore":6812,"defeat":6813,"blown":6814,"territory":6815,"cameron":6816,"unst":6817,"underground":6818,"crush":6819,"california":6820,"nak":6821,"##rol":6822,"lands":6823,"hits":6824,"##iple":6825,"dared":6826,"es":6827,"underwear":6828,"regardless":6829,"roy":6830,"investigation":6831,"impressive":6832,"gig":6833,"##osure":6834,"dallas":6835,"fleet":6836,"ralph":6837,"corpor":6838,"thera":6839,"manager":6840,"intently":6841,"descended":6842,"ladder":6843,"achie":6844,"controlled":6845,"##atter":6846,"fever":6847,"strate":6848,"bore":6849,"flee":6850,"##omes":6851,"##ros":6852,"##isk":6853,"muse":6854,"sized":6855,"intrig":6856,"ka":6857,"feeding":6858,"measure":6859,"##enses":6860,"assault":6861,"lifetime":6862,"cain":6863,"slender":6864,"jenna":6865,"remo":6866,"dip":6867,"worlds":6868,"southern":6869,"katherine":6870,"glaring":6871,"##cts":6872,"math":6873,"afterward":6874,"united":6875,"sinking":6876,"goal":6877,"meas":6878,"newspaper":6879,"england":6880,"sorts":6881,"pierce":6882,"bik":6883,"bless":6884,"lexi":6885,"glowed":6886,"##iveness":6887,"compound":6888,"require":6889,"sacrifice":6890,"pretended":6891,"##umpled":6892,"counted":6893,"unre":6894,"bron":6895,"intimate":6896,"sunsh":6897,"blinking":6898,"jones":6899,"dusty":6900,"##ission":6901,"decisions":6902,"##ula":6903,"caring":6904,"inev":6905,"ankles":6906,"amelia":6907,"exerc":6908,"emph":6909,"grav":6910,"helmet":6911,"options":6912,"thankfully":6913,"subtle":6914,"sixty":6915,"lid":6916,"franc":6917,"colour":6918,"obliv":6919,"scot":6920,"##ibilities":6921,"reflected":6922,"grumbled":6923,"prisoner":6924,"agents":6925,"designed":6926,"adrenaline":6927,"toby":6928,"scratch":6929,"transport":6930,"##bles":6931,"supply":6932,"barrel":6933,"nostrils":6934,"shaky":6935,"example":6936,"pitch":6937,"myth":6938,"##____":6939,"results":6940,"darker":6941,"##inge":6942,"indicated":6943,"mayor":6944,"popular":6945,"atop":6946,"senior":6947,"##bell":6948,"grade":6949,"samantha":6950,"twitched":6951,"deliberately":6952,"impl":6953,"rafe":6954,"##mark":6955,"draped":6956,"joking":6957,"servant":6958,"abilities":6959,"##inder":6960,"successful":6961,"authority":6962,"sydney":6963,"bee":6964,"monica":6965,"##mony":6966,"##antically":6967,"##amm":6968,"persu":6969,"described":6970,"laying":6971,"sniffed":6972,"ponder":6973,"species":6974,"mitch":6975,"penet":6976,"specific":6977,"groups":6978,"betrayed":6979,"##uten":6980,"cameras":6981,"seventeen":6982,"neil":6983,"records":6984,"cuff":6985,"aisle":6986,"magazine":6987,"bearing":6988,"archer":6989,"barked":6990,"employ":6991,"efforts":6992,"##not":6993,"ridge":6994,"##acles":6995,"cush":6996,"##enth":6997,"##berry":6998,"exception":6999,"##over":7000,"wrinkled":7001,"worrying":7002,"hammer":7003,"sunshine":7004,"creating":7005,"##phy":7006,"related":7007,"tin":7008,"replace":7009,"matching":7010,"jung":7011,"jobs":7012,"##cel":7013,"##ench":7014,"griff":7015,"nicole":7016,"confirm":7017,"callum":7018,"curtains":7019,"squinted":7020,"shirts":7021,"roughly":7022,"conven":7023,"##mates":7024,"awa":7025,"chasing":7026,"protested":7027,"recalled":7028,"inhaled":7029,"engage":7030,"tiger":7031,"flooded":7032,"steep":7033,"##ological":7034,"bryn":7035,"30":7036,"settling":7037,"smoking":7038,"data":7039,"prayed":7040,"grounds":7041,"dammit":7042,"##fo":7043,"locker":7044,"shallow":7045,"oddly":7046,"occupied":7047,"adjusted":7048,"fen":7049,"lieuten":7050,"commit":7051,"shelf":7052,"##iles":7053,"ara":7054,"transl":7055,"describe":7056,"mini":7057,"kil":7058,"stephan":7059,"##craft":7060,"reported":7061,"unlocked":7062,"ink":7063,"outfit":7064,"rocky":7065,"reputation":7066,"activity":7067,"ceremony":7068,"dressing":7069,"kel":7070,"rebe":7071,"##cca":7072,"##resh":7073,"##abor":7074,"carm":7075,"brightly":7076,"guitar":7077,"humili":7078,"examined":7079,"fade":7080,"##icient":7081,"load":7082,"detect":7083,"veget":7084,"insult":7085,"##gas":7086,"hem":7087,"engaged":7088,"reports":7089,"landsc":7090,"stripped":7091,"curt":7092,"caroline":7093,"arth":7094,"adop":7095,"guar":7096,"##elie":7097,"oct":7098,"##ga":7099,"##uish":7100,"##unate":7101,"increasing":7102,"##itching":7103,"outer":7104,"floors":7105,"demanding":7106,"sandwich":7107,"adding":7108,"sib":7109,"lighting":7110,"memor":7111,"immortal":7112,"zero":7113,"suic":7114,"clasped":7115,"parties":7116,"sob":7117,"collection":7118,"outs":7119,"increased":7120,"tug":7121,"##aze":7122,"blades":7123,"alongside":7124,"##ification":7125,"ath":7126,"atm":7127,"formal":7128,"jonas":7129,"##tor":7130,"value":7131,"##uced":7132,"flush":7133,"##asant":7134,"smug":7135,"lut":7136,"choo":7137,"##agne":7138,"savannah":7139,"avoided":7140,"comforting":7141,"##ari":7142,"whirled":7143,"triumph":7144,"shouts":7145,"irritated":7146,"cara":7147,"continuing":7148,"asse":7149,"elise":7150,"nicholas":7151,"##ships":7152,"##cting":7153,"##outs":7154,"analy":7155,"doz":7156,"dishes":7157,"wagon":7158,"sorrow":7159,"vaguely":7160,"flor":7161,"origin":7162,"blush":7163,"victory":7164,"dreaming":7165,"ranch":7166,"seemingly":7167,"embarrassment":7168,"gritted":7169,"railing":7170,"stor":7171,"panicked":7172,"colonel":7173,"mck":7174,"compass":7175,"fading":7176,"daylight":7177,"hoarse":7178,"paw":7179,"forming":7180,"border":7181,"juice":7182,"virt":7183,"conference":7184,"cuts":7185,"tag":7186,"majesty":7187,"files":7188,"anch":7189,"langdon":7190,"model":7191,"player":7192,"##icted":7193,"annoying":7194,"dollar":7195,"victims":7196,"suspicion":7197,"gasping":7198,"gossip":7199,"tact":7200,"reward":7201,"web":7202,"##retched":7203,"syn":7204,"torment":7205,"lingering":7206,"cups":7207,"distr":7208,"tugging":7209,"hart":7210,"ves":7211,"##cr":7212,"operation":7213,"acade":7214,"ashamed":7215,"cavern":7216,"downt":7217,"judgment":7218,"pave":7219,"breed":7220,"intimid":7221,"basically":7222,"cub":7223,"propped":7224,"witches":7225,"annoy":7226,"determination":7227,"accur":7228,"national":7229,"jasm":7230,"cabinet":7231,"ours":7232,"realization":7233,"erection":7234,"jab":7235,"instinctively":7236,"hoo":7237,"horn":7238,"steering":7239,"##lished":7240,"seam":7241,"despair":7242,"amazed":7243,"haunted":7244,"gazing":7245,"butterf":7246,"##idents":7247,"needle":7248,"ko":7249,"leaders":7250,"nuts":7251,"##olded":7252,"dove":7253,"rein":7254,"grac":7255,"peering":7256,"suv":7257,"##itated":7258,"mim":7259,"exasper":7260,"rocking":7261,"plants":7262,"breathless":7263,"bew":7264,"soap":7265,"keen":7266,"sung":7267,"fireplace":7268,"##istered":7269,"quality":7270,"##uri":7271,"minor":7272,"campus":7273,"rene":7274,"combat":7275,"prayer":7276,"melt":7277,"spots":7278,"noticing":7279,"giggle":7280,"##lasses":7281,"snapping":7282,"matched":7283,"buying":7284,"##astically":7285,"##bone":7286,"indust":7287,"angrily":7288,"arguing":7289,"oo":7290,"suits":7291,"stif":7292,"caf":7293,"frantically":7294,"buff":7295,"fortune":7296,"fantasy":7297,"##osphere":7298,"staggered":7299,"ded":7300,"poked":7301,"alpha":7302,"toler":7303,"frantic":7304,"leaped":7305,"noble":7306,"anytime":7307,"curl":7308,"blankets":7309,"choices":7310,"exciting":7311,"sometime":7312,"mister":7313,"elegant":7314,"flinched":7315,"package":7316,"goodness":7317,"bothering":7318,"gentlemen":7319,"eyelids":7320,"wizard":7321,"grat":7322,"tanner":7323,"grandpa":7324,"peaceful":7325,"marched":7326,"lighter":7327,"##mend":7328,"striking":7329,"stalked":7330,"fridge":7331,"swirling":7332,"pine":7333,"painfully":7334,"appropriate":7335,"lashes":7336,"garb":7337,"guardian":7338,"dash":7339,"destruction":7340,"sanct":7341,"##keep":7342,"surroundings":7343,"##azz":7344,"candles":7345,"belief":7346,"corpse":7347,"strangers":7348,"travis":7349,"statue":7350,"miche":7351,"##jah":7352,"slightest":7353,"gap":7354,"gau":7355,"marshall":7356,"sipped":7357,"film":7358,"nons":7359,"fox":7360,"smashed":7361,"ghosts":7362,"##ardon":7363,"bushes":7364,"##agers":7365,"assure":7366,"horrified":7367,"paced":7368,"##aa":7369,"luckily":7370,"blushed":7371,"vacation":7372,"taunt":7373,"attempting":7374,"bliss":7375,"awe":7376,"hopped":7377,"bund":7378,"email":7379,"lion":7380,"congr":7381,"##apers":7382,"blocking":7383,"transp":7384,"momentarily":7385,"throbbing":7386,"##usive":7387,"occasional":7388,"vest":7389,"instructed":7390,"glim":7391,"impul":7392,"granted":7393,"josie":7394,"##mond":7395,"british":7396,"lieutenant":7397,"isabella":7398,"lunged":7399,"neatly":7400,"dumped":7401,"consumed":7402,"dwarf":7403,"##inity":7404,"scor":7405,"sev":7406,"aged":7407,"##atives":7408,"spike":7409,"##arian":7410,"spy":7411,"smack":7412,"fiona":7413,"transf":7414,"breaks":7415,"clit":7416,"realised":7417,"typical":7418,"avery":7419,"##unks":7420,"rows":7421,"##lying":7422,"mansion":7423,"odds":7424,"shoe":7425,"counting":7426,"warren":7427,"depths":7428,"sealed":7429,"title":7430,"intru":7431,"hesitate":7432,"##while":7433,"zack":7434,"mes":7435,"precisely":7436,"fae":7437,"nause":7438,"bella":7439,"natalie":7440,"amongst":7441,"##umes":7442,"distraction":7443,"wasted":7444,"overwhelmed":7445,"ec":7446,"approval":7447,"benefit":7448,"riv":7449,"churn":7450,"finan":7451,"dozens":7452,"healed":7453,"braced":7454,"bush":7455,"softened":7456,"dump":7457,"miller":7458,"joining":7459,"nora":7460,"greed":7461,"beaten":7462,"initial":7463,"##avi":7464,"status":7465,"preser":7466,"attracted":7467,"shifter":7468,"experiment":7469,"blurted":7470,"##iron":7471,"##jam":7472,"wishes":7473,"fires":7474,"internet":7475,"lind":7476,"polished":7477,"committed":7478,"temperature":7479,"pathetic":7480,"wry":7481,"expand":7482,"outl":7483,"unse":7484,"wrest":7485,"rebecca":7486,"##ali":7487,"##ida":7488,"helicopter":7489,"stabbed":7490,"ital":7491,"pitched":7492,"ramp":7493,"graham":7494,"##down":7495,"##uming":7496,"toy":7497,"vik":7498,"cade":7499,"baseball":7500,"politely":7501,"cure":7502,"headache":7503,"pup":7504,"collected":7505,"fishing":7506,"stephen":7507,"pushes":7508,"monk":7509,"equal":7510,"strands":7511,"secretary":7512,"dominic":7513,"overhe":7514,"combination":7515,"washington":7516,"hyster":7517,"cler":7518,"argued":7519,"gifts":7520,"visiting":7521,"trey":7522,"areas":7523,"assuming":7524,"##zzie":7525,"sympathy":7526,"devast":7527,"jasmine":7528,"electricity":7529,"##arded":7530,"##urd":7531,"jungle":7532,"coughed":7533,"hovering":7534,"##shot":7535,"##wed":7536,"tommy":7537,"jeep":7538,"overt":7539,"rigid":7540,"##away":7541,"thirst":7542,"wallet":7543,"automatically":7544,"stealing":7545,"register":7546,"whore":7547,"hauled":7548,"reminding":7549,"crimson":7550,"bern":7551,"danc":7552,"mouths":7553,"misty":7554,"##ishly":7555,"izzy":7556,"mit":7557,"uneasy":7558,"recovered":7559,"201":7560,"smash":7561,"crawling":7562,"om":7563,"russian":7564,"qual":7565,"texas":7566,"kira":7567,"represent":7568,"seized":7569,"maneu":7570,"monitor":7571,"pacing":7572,"saddle":7573,"sincere":7574,"licking":7575,"tel":7576,"unique":7577,"earned":7578,"appointment":7579,"frances":7580,"##omy":7581,"instr":7582,"grins":7583,"basic":7584,"unhapp":7585,"disappearing":7586,"fluttered":7587,"brady":7588,"##ipper":7589,"channel":7590,"ashley":7591,"wreck":7592,"desperation":7593,"flir":7594,"glist":7595,"sweeping":7596,"##add":7597,"clapped":7598,"media":7599,"##olo":7600,"whip":7601,"##quis":7602,"sighs":7603,"remar":7604,"roads":7605,"mounted":7606,"sweep":7607,"ritual":7608,"absence":7609,"consequences":7610,"rights":7611,"painter":7612,"forms":7613,"##ainted":7614,"sting":7615,"kur":7616,"##iser":7617,"western":7618,"##lord":7619,"dani":7620,"ensure":7621,"telephone":7622,"extend":7623,"##ables":7624,"political":7625,"##las":7626,"shred":7627,"##adin":7628,"##rak":7629,"thrilled":7630,"nightmares":7631,"teaching":7632,"saint":7633,"cottage":7634,"consp":7635,"scroll":7636,"curling":7637,"zo":7638,"##box":7639,"mour":7640,"identity":7641,"limited":7642,"greeting":7643,"august":7644,"survival":7645,"encounter":7646,"noises":7647,"produced":7648,"##nic":7649,"psychic":7650,"##mber":7651,"serving":7652,"coward":7653,"##low":7654,"guessing":7655,"thorne":7656,"congrat":7657,"compre":7658,"megan":7659,"isabelle":7660,"solution":7661,"wandering":7662,"tempted":7663,"piercing":7664,"shudder":7665,"aven":7666,"phr":7667,"phill":7668,"belgar":7669,"mouse":7670,"elabor":7671,"naomi":7672,"leah":7673,"reassuring":7674,"hugh":7675,"standard":7676,"##uk":7677,"neighbors":7678,"walker":7679,"salv":7680,"sale":7681,"affair":7682,"influence":7683,"boston":7684,"troops":7685,"sprang":7686,"revel":7687,"acknowledge":7688,"drifting":7689,"gary":7690,"stable":7691,"framed":7692,"hatch":7693,"disgu":7694,"firing":7695,"tube":7696,"illeg":7697,"atmosphere":7698,"assemb":7699,"announce":7700,"violently":7701,"review":7702,"krist":7703,"technology":7704,"trailer":7705,"curiously":7706,"shotgun":7707,"apology":7708,"seal":7709,"jase":7710,"lingered":7711,"parker":7712,"allie":7713,"burns":7714,"##chief":7715,"rumors":7716,"companions":7717,"peeked":7718,"robin":7719,"fbi":7720,"becomes":7721,"spill":7722,"touches":7723,"treasure":7724,"ming":7725,"wary":7726,"champagne":7727,"locks":7728,"##umer":7729,"##arms":7730,"guided":7731,"fifth":7732,"snort":7733,"lav":7734,"teddy":7735,"repair":7736,"sket":7737,"##ulations":7738,"orn":7739,"##ethe":7740,"urged":7741,"muscular":7742,"receive":7743,"instincts":7744,"tapping":7745,"liber":7746,"transform":7747,"liv":7748,"joey":7749,"skinny":7750,"bucket":7751,"sped":7752,"ella":7753,"preston":7754,"vessel":7755,"bour":7756,"abb":7757,"erupted":7758,"rusty":7759,"##len":7760,"gravel":7761,"nudged":7762,"##van":7763,"fortunately":7764,"owed":7765,"speaks":7766,"ribb":7767,"sliced":7768,"winning":7769,"tucker":7770,"crisp":7771,"disease":7772,"barrier":7773,"##iper":7774,"wider":7775,"##itri":7776,"terribly":7777,"fragile":7778,"nah":7779,"##anne":7780,"humanity":7781,"facts":7782,"dresser":7783,"completed":7784,"ripping":7785,"tumbled":7786,"##enced":7787,"smear":7788,"hovered":7789,"carson":7790,"resour":7791,"hugging":7792,"sports":7793,"laurence":7794,"nonsense":7795,"francis":7796,"forearm":7797,"##lar":7798,"ster":7799,"downtown":7800,"thumbs":7801,"alan":7802,"vom":7803,"fingern":7804,"tob":7805,"songs":7806,"shrugs":7807,"beings":7808,"dizzy":7809,"panel":7810,"##tes":7811,"wander":7812,"writ":7813,"mock":7814,"glory":7815,"destination":7816,"sull":7817,"##oting":7818,"eva":7819,"invite":7820,"ga":7821,"ticket":7822,"curb":7823,"steven":7824,"suitcase":7825,"##arch":7826,"alb":7827,"thanked":7828,"advanced":7829,"georg":7830,"torso":7831,"ages":7832,"dane":7833,"wheels":7834,"tiss":7835,"##oti":7836,"##lim":7837,"worthy":7838,"gleaming":7839,"rim":7840,"conversations":7841,"noon":7842,"angie":7843,"##itors":7844,"worries":7845,"hardened":7846,"zombie":7847,"leaf":7848,"notebook":7849,"##ifying":7850,"strap":7851,"pent":7852,"arthur":7853,"chip":7854,"##ooled":7855,"pillows":7856,"declan":7857,"torch":7858,"##xture":7859,"involve":7860,"unple":7861,"apoll":7862,"17":7863,"jealousy":7864,"flaw":7865,"shelves":7866,"##aying":7867,"backing":7868,"savage":7869,"knights":7870,"ninet":7871,"empire":7872,"theyll":7873,"slice":7874,"withdrew":7875,"##rose":7876,"excl":7877,"sandy":7878,"casey":7879,"launched":7880,"knives":7881,"navy":7882,"treatment":7883,"anthony":7884,"pry":7885,"goose":7886,"june":7887,"clin":7888,"developed":7889,"possession":7890,"messed":7891,"permanent":7892,"thoughtful":7893,"frightening":7894,"spoon":7895,"deserted":7896,"lifts":7897,"pam":7898,"freezing":7899,"hut":7900,"##stick":7901,"destiny":7902,"reasonable":7903,"imagining":7904,"valentine":7905,"sher":7906,"admin":7907,"minim":7908,"generally":7909,"criminal":7910,"license":7911,"assassin":7912,"fitting":7913,"fulf":7914,"recover":7915,"concentrated":7916,"warmed":7917,"believing":7918,"lam":7919,"snugg":7920,"interf":7921,"devour":7922,"##ddle":7923,"finishing":7924,"##ssa":7925,"##agging":7926,"dwell":7927,"thud":7928,"aly":7929,"schol":7930,"arou":7931,"bould":7932,"solemn":7933,"bills":7934,"##uch":7935,"cells":7936,"weary":7937,"heck":7938,"madness":7939,"pic":7940,"vegas":7941,"smoothed":7942,"##ware":7943,"purchase":7944,"legend":7945,"##vas":7946,"newly":7947,"emper":7948,"explode":7949,"mighty":7950,"##ola":7951,"foul":7952,"pout":7953,"13":7954,"aj":7955,"potato":7956,"##rors":7957,"##aughters":7958,"chewed":7959,"pavement":7960,"inclined":7961,"##nels":7962,"soup":7963,"penny":7964,"pinched":7965,"blunt":7966,"whos":7967,"perry":7968,"roses":7969,"magnific":7970,"warehouse":7971,"fount":7972,"longing":7973,"refusing":7974,"melody":7975,"reminder":7976,"pleading":7977,"lazy":7978,"plot":7979,"cann":7980,"bouncing":7981,"aint":7982,"terrifying":7983,"madame":7984,"topic":7985,"scanning":7986,"italian":7987,"corrected":7988,"medicine":7989,"county":7990,"##lets":7991,"##ender":7992,"##lad":7993,"assess":7994,"smoothly":7995,"superior":7996,"##wing":7997,"hawk":7998,"deaf":7999,"##ipher":8000,"##ii":8001,"bending":8002,"clients":8003,"lew":8004,"failure":8005,"explaining":8006,"misery":8007,"disag":8008,"ponytail":8009,"effects":8010,"ally":8011,"ambul":8012,"affected":8013,"volume":8014,"veron":8015,"wealth":8016,"brutal":8017,"twir":8018,"isol":8019,"##uable":8020,"elijah":8021,"xavier":8022,"zombies":8023,"ruby":8024,"portal":8025,"swirled":8026,"creepy":8027,"pipe":8028,"vicious":8029,"##imately":8030,"decades":8031,"judging":8032,"impatient":8033,"sack":8034,"##ulted":8035,"landscape":8036,"facility":8037,"barg":8038,"lon":8039,"liar":8040,"testing":8041,"alto":8042,"sleeves":8043,"##ounded":8044,"surg":8045,"pron":8046,"layer":8047,"##quar":8048,"becky":8049,"fem":8050,"gradually":8051,"insides":8052,"dies":8053,"crooked":8054,"bury":8055,"prospect":8056,"clamped":8057,"##inese":8058,"services":8059,"suggestion":8060,"trous":8061,"smacked":8062,"jap":8063,"##ador":8064,"broo":8065,"socks":8066,"average":8067,"persp":8068,"maddie":8069,"regarded":8070,"clust":8071,"plunged":8072,"bug":8073,"yo":8074,"mage":8075,"telep":8076,"workers":8077,"witnessed":8078,"blouse":8079,"mmm":8080,"sober":8081,"##essa":8082,"attor":8083,"dil":8084,"replies":8085,"##epend":8086,"accompanied":8087,"eyeing":8088,"tortured":8089,"##osition":8090,"injuries":8091,"kellan":8092,"##cut":8093,"bump":8094,"sighing":8095,"cats":8096,"vigor":8097,"##zer":8098,"trailing":8099,"stunning":8100,"gained":8101,"clam":8102,"spilling":8103,"##isha":8104,"##aware":8105,"dimitri":8106,"##rim":8107,"arrested":8108,"recon":8109,"##ulty":8110,"pleaded":8111,"##enn":8112,"##itute":8113,"perched":8114,"##ouch":8115,"thoroughly":8116,"helps":8117,"14":8118,"neut":8119,"mistakes":8120,"edged":8121,"museum":8122,"drama":8123,"aura":8124,"sunglasses":8125,"chinese":8126,"temporary":8127,"zone":8128,"adventure":8129,"customers":8130,"samuel":8131,"clinging":8132,"mcc":8133,"irre":8134,"vehicles":8135,"##oid":8136,"##uge":8137,"griffin":8138,"flicker":8139,"tools":8140,"linc":8141,"exited":8142,"seed":8143,"claud":8144,"rattled":8145,"personality":8146,"##erted":8147,"##enelle":8148,"##icated":8149,"##iments":8150,"disaster":8151,"praying":8152,"princip":8153,"discussed":8154,"joshua":8155,"dealt":8156,"storage":8157,"beds":8158,"electron":8159,"shivering":8160,"scowl":8161,"reed":8162,"pump":8163,"afric":8164,"tires":8165,"##uttered":8166,"shades":8167,"cities":8168,"kor":8169,"##cha":8170,"gloss":8171,"##iano":8172,"introduce":8173,"prime":8174,"hector":8175,"chased":8176,"tas":8177,"werewolves":8178,"interrog":8179,"troubled":8180,"tilt":8181,"rhys":8182,"##ndry":8183,"whiskey":8184,"##oen":8185,"foyer":8186,"cran":8187,"daughters":8188,"juliet":8189,"kinda":8190,"##vey":8191,"deciding":8192,"capture":8193,"suicide":8194,"kneeling":8195,"deer":8196,"independ":8197,"lance":8198,"limit":8199,"mold":8200,"beloved":8201,"strict":8202,"hastily":8203,"bodygu":8204,"piled":8205,"eden":8206,"hopeless":8207,"jaenelle":8208,"choking":8209,"jerry":8210,"profile":8211,"fid":8212,"bunk":8213,"pecul":8214,"sparks":8215,"##arre":8216,"bubble":8217,"levels":8218,"##bbling":8219,"article":8220,"disturbing":8221,"annoyance":8222,"nut":8223,"haze":8224,"overs":8225,"deaths":8226,"sage":8227,"heaved":8228,"beasts":8229,"##udge":8230,"unbelie":8231,"abandon":8232,"celest":8233,"puzzle":8234,"assignment":8235,"echoing":8236,"oppon":8237,"drain":8238,"fantastic":8239,"roth":8240,"##gra":8241,"awh":8242,"prisoners":8243,"squat":8244,"junior":8245,"awkwardly":8246,"creek":8247,"emphas":8248,"waiter":8249,"chad":8250,"##ani":8251,"unpleasant":8252,"##gers":8253,"sworn":8254,"tease":8255,"mout":8256,"blows":8257,"dale":8258,"temples":8259,"encourage":8260,"bruises":8261,"##ays":8262,"whoa":8263,"##power":8264,"awareness":8265,"intelligent":8266,"artist":8267,"divorce":8268,"impatiently":8269,"femin":8270,"melanie":8271,"lia":8272,"winds":8273,"garbage":8274,"feast":8275,"levi":8276,"selling":8277,"specul":8278,"belgarath":8279,"dangling":8280,"decorated":8281,"##anging":8282,"environ":8283,"rabbit":8284,"han":8285,"brains":8286,"studio":8287,"reject":8288,"16":8289,"caution":8290,"junk":8291,"mant":8292,"taxi":8293,"pearl":8294,"##hi":8295,"##ulating":8296,"harper":8297,"##aude":8298,"shuffled":8299,"##iders":8300,"##rad":8301,"kent":8302,"awak":8303,"blazing":8304,"##char":8305,"##riger":8306,"exhaustion":8307,"slides":8308,"thoughtfully":8309,"##unken":8310,"sylv":8311,"clip":8312,"refriger":8313,"steadily":8314,"remarked":8315,"##uction":8316,"bartender":8317,"intentions":8318,"arrogant":8319,"appreciated":8320,"mara":8321,"regarding":8322,"generous":8323,"charges":8324,"leth":8325,"##bling":8326,"fran":8327,"safer":8328,"trib":8329,"coin":8330,"tests":8331,"tunnels":8332,"differently":8333,"promises":8334,"compliment":8335,"fuel":8336,"histor":8337,"michelle":8338,"##ooping":8339,"skyla":8340,"lucivar":8341,"maxim":8342,"japan":8343,"crumpled":8344,"##entially":8345,"accus":8346,"##ulsion":8347,"reporter":8348,"capital":8349,"peculiar":8350,"humming":8351,"charity":8352,"recru":8353,"loyalty":8354,"##worth":8355,"patiently":8356,"##athed":8357,"##ban":8358,"flare":8359,"sensual":8360,"negoti":8361,"wrath":8362,"lowering":8363,"##inter":8364,"curves":8365,"emperor":8366,"conclusion":8367,"concentration":8368,"micah":8369,"guarded":8370,"partners":8371,"lessons":8372,"pills":8373,"razor":8374,"lasted":8375,"sparkling":8376,"lizzie":8377,"##aneously":8378,"inher":8379,"stung":8380,"offended":8381,"##inkling":8382,"accused":8383,"motorcy":8384,"enthusiasm":8385,"##celer":8386,"000":8387,"cares":8388,"##point":8389,"pauses":8390,"inward":8391,"##ctive":8392,"sweaty":8393,"burden":8394,"##aire":8395,"crushing":8396,"thrill":8397,"fare":8398,"description":8399,"bin":8400,"shri":8401,"tops":8402,"##ndy":8403,"centre":8404,"twitch":8405,"##wind":8406,"allison":8407,"cassidy":8408,"releasing":8409,"damaged":8410,"citizens":8411,"strolled":8412,"visitors":8413,"fiery":8414,"##nge":8415,"wisdom":8416,"dess":8417,"phoen":8418,"scal":8419,"online":8420,"acceler":8421,"##mie":8422,"slipp":8423,"cem":8424,"conver":8425,"discussing":8426,"visions":8427,"luther":8428,"faintly":8429,"powder":8430,"jewelry":8431,"thankful":8432,"albert":8433,"shrieked":8434,"injury":8435,"##zzle":8436,"##force":8437,"##rence":8438,"contrast":8439,"awhile":8440,"fest":8441,"folk":8442,"calvin":8443,"scur":8444,"picks":8445,"ecst":8446,"jules":8447,"soil":8448,"conqu":8449,"wool":8450,"belle":8451,"cherry":8452,"thump":8453,"pole":8454,"compassion":8455,"##engers":8456,"ambulance":8457,"fashioned":8458,"inevitable":8459,"messy":8460,"brun":8461,"officially":8462,"fiercely":8463,"sham":8464,"passes":8465,"##cest":8466,"##fic":8467,"assigned":8468,"##ooling":8469,"ki":8470,"##oma":8471,"##chant":8472,"corps":8473,"tightening":8474,"sucks":8475,"cookies":8476,"abo":8477,"##rell":8478,"snick":8479,"resistance":8480,"yel":8481,"shorter":8482,"retreated":8483,"roots":8484,"##akable":8485,"cassandra":8486,"presented":8487,"print":8488,"handled":8489,"menu":8490,"dashed":8491,"lantern":8492,"irritation":8493,"population":8494,"huddled":8495,"hunched":8496,"##rical":8497,"altogether":8498,"##mail":8499,"tiff":8500,"cancer":8501,"overcome":8502,"delic":8503,"dazed":8504,"exercise":8505,"skipped":8506,"##lict":8507,"sticks":8508,"malcol":8509,"thorn":8510,"disturbed":8511,"zeke":8512,"##uits":8513,"paperwork":8514,"embarrassing":8515,"disappro":8516,"casting":8517,"rubber":8518,"##bag":8519,"sobbing":8520,"attempts":8521,"philos":8522,"phoenix":8523,"##bon":8524,"complained":8525,"multiple":8526,"concept":8527,"streaming":8528,"vlad":8529,"skye":8530,"northern":8531,"bites":8532,"pierced":8533,"seventy":8534,"##inent":8535,"cracking":8536,"dol":8537,"scul":8538,"madison":8539,"##aste":8540,"bewild":8541,"delighted":8542,"internal":8543,"marc":8544,"commented":8545,"lords":8546,"sculpt":8547,"dismissed":8548,"senator":8549,"weigh":8550,"appet":8551,"slope":8552,"rex":8553,"chips":8554,"vivid":8555,"inviting":8556,"yer":8557,"christo":8558,"limits":8559,"eagerly":8560,"restless":8561,"dryly":8562,"##keeper":8563,"surged":8564,"environment":8565,"urgent":8566,"00":8567,"illusion":8568,"##esday":8569,"stew":8570,"##ienna":8571,"stove":8572,"bic":8573,"##itches":8574,"jade":8575,"##esy":8576,"##vable":8577,"method":8578,"session":8579,"logic":8580,"oxy":8581,"indul":8582,"watches":8583,"furrowed":8584,"amid":8585,"oblivious":8586,"mead":8587,"sweating":8588,"freeze":8589,"technically":8590,"##rod":8591,"cargo":8592,"ignor":8593,"slaves":8594,"##ppers":8595,"unaware":8596,"circling":8597,"envelop":8598,"bolted":8599,"inex":8600,"removing":8601,"##seat":8602,"forgetting":8603,"ford":8604,"tuesday":8605,"cos":8606,"discon":8607,"flickering":8608,"apollo":8609,"gus":8610,"speaker":8611,"malcolm":8612,"jagged":8613,"boom":8614,"disgusted":8615,"vivian":8616,"si":8617,"rogue":8618,"murmur":8619,"valuable":8620,"tune":8621,"spanish":8622,"##mod":8623,"partially":8624,"supper":8625,"geor":8626,"incredulous":8627,"attraction":8628,"antonio":8629,"##ties":8630,"##otes":8631,"parano":8632,"bruised":8633,"patrol":8634,"coincidence":8635,"chem":8636,"folding":8637,"focusing":8638,"##za":8639,"exagger":8640,"cursing":8641,"surreal":8642,"gust":8643,"##ader":8644,"theater":8645,"tracking":8646,"mixture":8647,"gruff":8648,"merc":8649,"##olved":8650,"slung":8651,"bish":8652,"encl":8653,"awoke":8654,"shaken":8655,"##icia":8656,"hav":8657,"brisk":8658,"lissa":8659,"##ighed":8660,"slack":8661,"rory":8662,"absently":8663,"dated":8664,"##cery":8665,"performance":8666,"trousers":8667,"##etan":8668,"strapped":8669,"deput":8670,"ul":8671,"backseat":8672,"resolve":8673,"pand":8674,"construction":8675,"shapes":8676,"district":8677,"notion":8678,"mocking":8679,"catherine":8680,"pac":8681,"temp":8682,"darius":8683,"##elling":8684,"##lee":8685,"blackness":8686,"flipping":8687,"chu":8688,"budd":8689,"rational":8690,"fund":8691,"biz":8692,"##angle":8693,"tad":8694,"##vant":8695,"stella":8696,"wea":8697,"carn":8698,"recom":8699,"sunset":8700,"nadia":8701,"hire":8702,"fluid":8703,"catches":8704,"flex":8705,"machines":8706,"lilly":8707,"winding":8708,"sanctuary":8709,"carlos":8710,"meanwhile":8711,"aboard":8712,"beau":8713,"financial":8714,"##chair":8715,"##ceded":8716,"pix":8717,"sensing":8718,"schedul":8719,"spur":8720,"backyard":8721,"emerald":8722,"lounge":8723,"genuinely":8724,"sasha":8725,"hiss":8726,"advance":8727,"indian":8728,"combined":8729,"amaze":8730,"dorian":8731,"marco":8732,"communication":8733,"##ko":8734,"##orse":8735,"felix":8736,"reluctant":8737,"##pit":8738,"sept":8739,"##ala":8740,"##issy":8741,"gravity":8742,"laced":8743,"##usions":8744,"pictured":8745,"interp":8746,"strings":8747,"##rr":8748,"##isher":8749,"##ician":8750,"registered":8751,"bonnie":8752,"swallowing":8753,"doubts":8754,"aggress":8755,"##osal":8756,"##hea":8757,"##eped":8758,"elaborate":8759,"attacks":8760,"starving":8761,"downward":8762,"fiction":8763,"mab":8764,"union":8765,"cemet":8766,"drunken":8767,"toll":8768,"nep":8769,"sleepy":8770,"swayed":8771,"confess":8772,"chant":8773,"##scri":8774,"thurs":8775,"##imeter":8776,"kara":8777,"closes":8778,"france":8779,"cemetery":8780,"stilled":8781,"thursday":8782,"##urg":8783,"strain":8784,"##ota":8785,"##ww":8786,"males":8787,"dus":8788,"napkin":8789,"##ito":8790,"spells":8791,"rats":8792,"ancest":8793,"dalton":8794,"##acity":8795,"laundry":8796,"greek":8797,"magnificent":8798,"mistaken":8799,"locking":8800,"dub":8801,"comments":8802,"merry":8803,"caressed":8804,"fantas":8805,"oldest":8806,"tremble":8807,"##mic":8808,"pausing":8809,"kaladin":8810,"packing":8811,"aer":8812,"boats":8813,"commer":8814,"relent":8815,"pencil":8816,"eleanor":8817,"whimp":8818,"whimper":8819,"heir":8820,"bumped":8821,"##oses":8822,"flashes":8823,"talks":8824,"prepar":8825,"numer":8826,"illegal":8827,"scalp":8828,"practical":8829,"distress":8830,"sprawled":8831,"##kind":8832,"sales":8833,"##apse":8834,"presses":8835,"prize":8836,"flav":8837,"filthy":8838,"score":8839,"accepting":8840,"tended":8841,"##zo":8842,"arrows":8843,"##apor":8844,"refrigerator":8845,"rapha":8846,"arriving":8847,"obst":8848,"explore":8849,"##heron":8850,"flatt":8851,"goin":8852,"##tegr":8853,"unlikely":8854,"pregnancy":8855,"ropes":8856,"mah":8857,"proc":8858,"serena":8859,"margaret":8860,"sacred":8861,"dresses":8862,"teenager":8863,"brooke":8864,"positioned":8865,"plo":8866,"scale":8867,"bout":8868,"lovers":8869,"##robe":8870,"acheron":8871,"mari":8872,"dial":8873,"shutting":8874,"luis":8875,"##ifully":8876,"extraord":8877,"scenar":8878,"eag":8879,"attacking":8880,"insurance":8881,"drivers":8882,"gross":8883,"convincing":8884,"pond":8885,"rus":8886,"sup":8887,"clerk":8888,"sunny":8889,"##hend":8890,"ric":8891,"jonah":8892,"denied":8893,"claude":8894,"willow":8895,"unhappy":8896,"blasted":8897,"meetings":8898,"genius":8899,"wax":8900,"helpful":8901,"navig":8902,"mommy":8903,"##umbles":8904,"scarf":8905,"hazel":8906,"retrieve":8907,"bethany":8908,"scooped":8909,"neutral":8910,"reacted":8911,"blessed":8912,"initi":8913,"april":8914,"guts":8915,"##hered":8916,"sobs":8917,"females":8918,"variety":8919,"larry":8920,"hopeful":8921,"venge":8922,"sympat":8923,"returns":8924,"cowboy":8925,"daw":8926,"goo":8927,"secured":8928,"china":8929,"repeatedly":8930,"buzzing":8931,"additional":8932,"education":8933,"ruff":8934,"nash":8935,"clad":8936,"folds":8937,"##nesday":8938,"rounds":8939,"elle":8940,"tool":8941,"objects":8942,"stuart":8943,"reserved":8944,"conso":8945,"demands":8946,"bizarre":8947,"whistle":8948,"wednesday":8949,"smelling":8950,"##ishes":8951,"stumbling":8952,"joel":8953,"callie":8954,"surviv":8955,"scoffed":8956,"disgusting":8957,"buzzed":8958,"recip":8959,"##fits":8960,"undead":8961,"betrayal":8962,"bom":8963,"motionless":8964,"grie":8965,"##agues":8966,"resort":8967,"millions":8968,"asshole":8969,"swam":8970,"##uffed":8971,"bishop":8972,"feathers":8973,"eighty":8974,"##ulting":8975,"proceeded":8976,"lana":8977,"adults":8978,"cringed":8979,"oxygen":8980,"depos":8981,"romance":8982,"sly":8983,"heavens":8984,"identify":8985,"pursed":8986,"kitten":8987,"##alf":8988,"accidentally":8989,"canvas":8990,"examine":8991,"reminds":8992,"##atell":8993,"motel":8994,"diana":8995,"sock":8996,"dele":8997,"lurched":8998,"tipto":8999,"constru":9000,"tire":9001,"duties":9002,"chewing":9003,"##gic":9004,"summoned":9005,"cracks":9006,"portion":9007,"punish":9008,"##ustomed":9009,"cody":9010,"giggling":9011,"dj":9012,"silky":9013,"murphy":9014,"##amiliar":9015,"significant":9016,"blinding":9017,"fountain":9018,"madeline":9019,"concerns":9020,"exquis":9021,"upside":9022,"mouthed":9023,"elsewhere":9024,"rumbled":9025,"referring":9026,"tut":9027,"supernatural":9028,"sawyer":9029,"brighter":9030,"delivery":9031,"sticky":9032,"glittering":9033,"defensive":9034,"raphael":9035,"##bris":9036,"encountered":9037,"freely":9038,"bum":9039,"unfamiliar":9040,"altar":9041,"expressions":9042,"dign":9043,"largest":9044,"phillip":9045,"activities":9046,"solve":9047,"autumn":9048,"linked":9049,"##ivity":9050,"midst":9051,"evidently":9052,"pod":9053,"shine":9054,"audrey":9055,"liking":9056,"religious":9057,"outst":9058,"robot":9059,"classroom":9060,"furiously":9061,"cath":9062,"##berg":9063,"particip":9064,"axe":9065,"talon":9066,"proudly":9067,"basis":9068,"gaping":9069,"francesca":9070,"shack":9071,"brass":9072,"shocking":9073,"void":9074,"countless":9075,"compar":9076,"##bits":9077,"nineteen":9078,"whitney":9079,"jem":9080,"subs":9081,"pend":9082,"piper":9083,"piano":9084,"econ":9085,"upd":9086,"cane":9087,"pumping":9088,"tribe":9089,"##quet":9090,"stomped":9091,"stride":9092,"rug":9093,"fascinated":9094,"andrea":9095,"##unching":9096,"dna":9097,"pardon":9098,"tiffany":9099,"resisted":9100,"attorney":9101,"systems":9102,"glorious":9103,"##inkle":9104,"##foot":9105,"identical":9106,"battered":9107,"itll":9108,"depend":9109,"dialed":9110,"infected":9111,"calmed":9112,"##ours":9113,"absorbed":9114,"feminine":9115,"creeping":9116,"stench":9117,"cautious":9118,"dome":9119,"index":9120,"depends":9121,"##xic":9122,"sust":9123,"traitor":9124,"bacon":9125,"fee":9126,"bedside":9127,"mound":9128,"stance":9129,"beamed":9130,"cue":9131,"##arming":9132,"drowning":9133,"lucian":9134,"raises":9135,"absurd":9136,"##lder":9137,"semi":9138,"stray":9139,"##ologet":9140,"gin":9141,"mused":9142,"puppy":9143,"paintings":9144,"shifters":9145,"strand":9146,"plas":9147,"dates":9148,"retrieved":9149,"consci":9150,"##alls":9151,"tales":9152,"assistance":9153,"minister":9154,"avenue":9155,"##agan":9156,"strongly":9157,"crest":9158,"##omet":9159,"skept":9160,"obey":9161,"hilt":9162,"scraped":9163,"startling":9164,"##irm":9165,"column":9166,"jumps":9167,"players":9168,"timing":9169,"choosing":9170,"##ody":9171,"willingly":9172,"sienna":9173,"withdraw":9174,"choke":9175,"root":9176,"##herent":9177,"immense":9178,"stormed":9179,"##ela":9180,"stays":9181,"meantime":9182,"degrees":9183,"sarcasm":9184,"trusting":9185,"defeated":9186,"shifts":9187,"stirring":9188,"teachers":9189,"##tr":9190,"offers":9191,"salad":9192,"gulped":9193,"dramatic":9194,"eastern":9195,"secretly":9196,"trucks":9197,"rank":9198,"saetan":9199,"bray":9200,"arous":9201,"##lands":9202,"ledge":9203,"possibilities":9204,"disturb":9205,"ego":9206,"gallery":9207,"arousal":9208,"gay":9209,"theyve":9210,"logical":9211,"carr":9212,"roaring":9213,"resent":9214,"sche":9215,"delay":9216,"outrage":9217,"rumble":9218,"drowned":9219,"wield":9220,"league":9221,"aspect":9222,"reacher":9223,"ninety":9224,"oun":9225,"happier":9226,"difficulty":9227,"sunk":9228,"britt":9229,"coven":9230,"confessed":9231,"highest":9232,"specifically":9233,"adri":9234,"papa":9235,"simult":9236,"joint":9237,"lame":9238,"eerie":9239,"chan":9240,"peeled":9241,"guarant":9242,"stalk":9243,"orle":9244,"diner":9245,"##annon":9246,"alter":9247,"patients":9248,"offices":9249,"fumbled":9250,"towns":9251,"##enzie":9252,"cul":9253,"bastards":9254,"stacked":9255,"complain":9256,"husky":9257,"fingernails":9258,"alike":9259,"uncont":9260,"elliot":9261,"barre":9262,"gunner":9263,"scarce":9264,"os":9265,"frankly":9266,"shark":9267,"taut":9268,"foster":9269,"##igan":9270,"200":9271,"##uf":9272,"collapse":9273,"phones":9274,"follows":9275,"wasting":9276,"gesturing":9277,"vote":9278,"stil":9279,"saun":9280,"peek":9281,"prophe":9282,"##laim":9283,"ana":9284,"wond":9285,"masters":9286,"og":9287,"relationships":9288,"suspiciously":9289,"##amble":9290,"positions":9291,"prompted":9292,"apprehens":9293,"seduct":9294,"layla":9295,"mascul":9296,"hayden":9297,"nephew":9298,"blurred":9299,"resources":9300,"offense":9301,"gaped":9302,"virus":9303,"##ciously":9304,"cousins":9305,"bou":9306,"##words":9307,"unl":9308,"fans":9309,"mars":9310,"coy":9311,"guarantee":9312,"owners":9313,"huff":9314,"threats":9315,"##ailed":9316,"celebrate":9317,"theirs":9318,"##yees":9319,"maya":9320,"##see":9321,"hates":9322,"grinding":9323,"employees":9324,"##bey":9325,"nightstand":9326,"tones":9327,"pained":9328,"jerking":9329,"weakly":9330,"mak":9331,"##bar":9332,"stain":9333,"agency":9334,"sequ":9335,"discomfort":9336,"knob":9337,"condom":9338,"##ras":9339,"motorcycle":9340,"pose":9341,"dessert":9342,"unco":9343,"vital":9344,"sneaking":9345,"outstretched":9346,"hud":9347,"##comed":9348,"popping":9349,"script":9350,"gratitude":9351,"document":9352,"dense":9353,"applied":9354,"halls":9355,"tissue":9356,"skip":9357,"predict":9358,"acknowledged":9359,"isabel":9360,"appearing":9361,"dripped":9362,"thresh":9363,"requested":9364,"shops":9365,"##~~":9366,"tattoos":9367,"##hou":9368,"tripped":9369,"sweetie":9370,"recognition":9371,"perfection":9372,"##ho":9373,"partly":9374,"stink":9375,"styx":9376,"lacey":9377,"##azar":9378,"suited":9379,"hind":9380,"abig":9381,"debris":9382,"rowan":9383,"heap":9384,"achieve":9385,"jokes":9386,"##sa":9387,"##yers":9388,"adds":9389,"motions":9390,"muttering":9391,"tested":9392,"negative":9393,"melting":9394,"##ologist":9395,"elderly":9396,"##anth":9397,"bloss":9398,"huffed":9399,"##iva":9400,"numerous":9401,"traum":9402,"americ":9403,"pel":9404,"mast":9405,"gee":9406,"lecture":9407,"spaces":9408,"relaxing":9409,"studies":9410,"tricks":9411,"bucks":9412,"lucan":9413,"straining":9414,"eliza":9415,"diego":9416,"gardens":9417,"alexia":9418,"minded":9419,"types":9420,"##iac":9421,"##ills":9422,"##eland":9423,"addressed":9424,"originally":9425,"##nold":9426,"##azed":9427,"beef":9428,"essence":9429,"passengers":9430,"believes":9431,"golf":9432,"exter":9433,"strokes":9434,"joan":9435,"christopher":9436,"omin":9437,"threshold":9438,"daring":9439,"nix":9440,"grimly":9441,"peer":9442,"escaping":9443,"pus":9444,"conner":9445,"dat":9446,"##water":9447,"swaying":9448,"proven":9449,"unfortunate":9450,"##olyn":9451,"mobile":9452,"region":9453,"importance":9454,"joked":9455,"freaked":9456,"teenage":9457,"santa":9458,"##acon":9459,"chunk":9460,"loop":9461,"##quarters":9462,"comprom":9463,"garr":9464,"poking":9465,"dana":9466,"homework":9467,"innocence":9468,"deme":9469,"illuminated":9470,"murmurs":9471,"amazement":9472,"maddy":9473,"perp":9474,"olive":9475,"duff":9476,"##ein":9477,"rue":9478,"weighed":9479,"##ressing":9480,"sleek":9481,"metall":9482,"tide":9483,"chand":9484,"counsel":9485,"governor":9486,"##uman":9487,"flan":9488,"mexico":9489,"orleans":9490,"improve":9491,"welcomed":9492,"aden":9493,"##istent":9494,"explains":9495,"abdom":9496,"debt":9497,"marty":9498,"ties":9499,"quir":9500,"craig":9501,"22":9502,"fighter":9503,"##rum":9504,"##itha":9505,"ronan":9506,"slips":9507,"admired":9508,"flies":9509,"severe":9510,"murderer":9511,"lush":9512,"paraly":9513,"earnest":9514,"ire":9515,"plague":9516,"discovery":9517,"caden":9518,"dab":9519,"perfume":9520,"soda":9521,"outward":9522,"tighten":9523,"abigail":9524,"##shield":9525,"raging":9526,"brood":9527,"hairs":9528,"theo":9529,"flinch":9530,"relatively":9531,"absent":9532,"##mitted":9533,"harv":9534,"campa":9535,"uses":9536,"patio":9537,"flirt":9538,"naught":9539,"bubba":9540,"asce":9541,"##theless":9542,"kindness":9543,"infin":9544,"uncomfortably":9545,"hound":9546,"accommod":9547,"oath":9548,"headlights":9549,"nevertheless":9550,"console":9551,"academy":9552,"##ba":9553,"##oken":9554,"roast":9555,"brim":9556,"arrangement":9557,"lewis":9558,"unle":9559,"honesty":9560,"##oped":9561,"janet":9562,"organization":9563,"##born":9564,"determine":9565,"##onym":9566,"cement":9567,"mick":9568,"succeeded":9569,"cheerful":9570,"bert":9571,"conj":9572,"encoura":9573,"clipped":9574,"desired":9575,"resumed":9576,"shir":9577,"##inar":9578,"ultimate":9579,"##hl":9580,"seld":9581,"tyr":9582,"motiv":9583,"groom":9584,"gasps":9585,"fucked":9586,"burnt":9587,"rect":9588,"engines":9589,"aliens":9590,"uncontroll":9591,"banged":9592,"linda":9593,"##ummy":9594,"circular":9595,"undo":9596,"##bones":9597,"##alt":9598,"rises":9599,"wealthy":9600,"alf":9601,"nancy":9602,"include":9603,"elf":9604,"pierre":9605,"glimps":9606,"robes":9607,"##reet":9608,"nikki":9609,"eternal":9610,"lethal":9611,"stephanie":9612,"hailey":9613,"divine":9614,"elim":9615,"##otch":9616,"lever":9617,"accustomed":9618,"yells":9619,"luxury":9620,"sorcer":9621,"phrase":9622,"austin":9623,"tavi":9624,"chart":9625,"moaning":9626,"##most":9627,"meals":9628,"simpl":9629,"thrusting":9630,"##rus":9631,"intact":9632,"##phe":9633,"cellar":9634,"borrow":9635,"tomb":9636,"beams":9637,"jag":9638,"restraint":9639,"##fted":9640,"scre":9641,"failing":9642,"scratching":9643,"windshield":9644,"hasnt":9645,"commission":9646,"hunted":9647,"halted":9648,"bid":9649,"fetch":9650,"warily":9651,"splin":9652,"indicating":9653,"rays":9654,"computers":9655,"belongs":9656,"gil":9657,"##arn":9658,"##orld":9659,"##och":9660,"bumps":9661,"pang":9662,"carmine":9663,"##augh":9664,"acid":9665,"displayed":9666,"examining":9667,"extract":9668,"afterwards":9669,"confession":9670,"goods":9671,"slowing":9672,"thy":9673,"visual":9674,"nation":9675,"mode":9676,"redd":9677,"concluded":9678,"dent":9679,"indign":9680,"lincol":9681,"sue":9682,"apologet":9683,"stores":9684,"overly":9685,"slit":9686,"intrigued":9687,"competition":9688,"dennis":9689,"encouraged":9690,"dive":9691,"inhab":9692,"active":9693,"establish":9694,"##agn":9695,"lining":9696,"unwilling":9697,"orb":9698,"kidnapped":9699,"bind":9700,"fiance":9701,"plucked":9702,"agon":9703,"lifeless":9704,"jolt":9705,"correctly":9706,"unison":9707,"##ikes":9708,"messenger":9709,"growling":9710,"conscience":9711,"lass":9712,"purchased":9713,"ruins":9714,"splashed":9715,"cind":9716,"plum":9717,"copper":9718,"bible":9719,"network":9720,"grocery":9721,"stairwell":9722,"grasping":9723,"coughing":9724,"playful":9725,"conspir":9726,"throws":9727,"cooked":9728,"elders":9729,"handy":9730,"chamb":9731,"sweetly":9732,"##cal":9733,"##ryn":9734,"kindly":9735,"##orters":9736,"attic":9737,"surgery":9738,"coffin":9739,"thief":9740,"exposing":9741,"banks":9742,"descend":9743,"corrupt":9744,"tasting":9745,"lair":9746,"enh":9747,"##mpt":9748,"fried":9749,"prow":9750,"##attle":9751,"ceased":9752,"nonethe":9753,"claiming":9754,"noelle":9755,"nicely":9756,"troy":9757,"25":9758,"patterns":9759,"swamp":9760,"escorted":9761,"implic":9762,"nonetheless":9763,"swive":9764,"##boards":9765,"fortress":9766,"##but":9767,"##aux":9768,"##ouched":9769,"favour":9770,"lemon":9771,"ounce":9772,"unset":9773,"nurses":9774,"atlant":9775,"documents":9776,"toys":9777,"cradled":9778,"##oman":9779,"arrangements":9780,"snaps":9781,"erra":9782,"rox":9783,"flirting":9784,"glove":9785,"discip":9786,"harley":9787,"disagree":9788,"##udged":9789,"politics":9790,"lena":9791,"moss":9792,"bared":9793,"warlord":9794,"layers":9795,"##ppled":9796,"overnight":9797,"deepened":9798,"raf":9799,"bells":9800,"tant":9801,"plays":9802,"##rael":9803,"metallic":9804,"photographs":9805,"mol":9806,"sloane":9807,"##ending":9808,"invent":9809,"mace":9810,"mush":9811,"forbidden":9812,"gord":9813,"float":9814,"parad":9815,"##ayer":9816,"regretted":9817,"nuzz":9818,"asher":9819,"flet":9820,"sentin":9821,"strategy":9822,"veil":9823,"harbor":9824,"thee":9825,"retire":9826,"clenching":9827,"scooted":9828,"contest":9829,"muddy":9830,"bulk":9831,"inquis":9832,"coins":9833,"shimmering":9834,"gram":9835,"coke":9836,"##ovan":9837,"headquarters":9838,"characters":9839,"##vo":9840,"coord":9841,"philip":9842,"benn":9843,"##uated":9844,"lincoln":9845,"launch":9846,"accomplish":9847,"cushion":9848,"##load":9849,"outline":9850,"satin":9851,"native":9852,"slur":9853,"banging":9854,"destroying":9855,"investigate":9856,"24":9857,"twent":9858,"erotic":9859,"irish":9860,"artif":9861,"##hire":9862,"wraps":9863,"evident":9864,"tracing":9865,"pey":9866,"quin":9867,"neared":9868,"##rons":9869,"silhou":9870,"unner":9871,"effective":9872,"webs":9873,"playfully":9874,"produce":9875,"bargain":9876,"jaws":9877,"dur":9878,"slapping":9879,"pupp":9880,"indication":9881,"##iner":9882,"woken":9883,"paths":9884,"conditions":9885,"deserves":9886,"cora":9887,"ay":9888,"marking":9889,"indiff":9890,"hack":9891,"##ergus":9892,"bitten":9893,"##asions":9894,"ivan":9895,"simultaneously":9896,"hudson":9897,"gleam":9898,"reapp":9899,"##chers":9900,"respected":9901,"##acious":9902,"pulsing":9903,"heaving":9904,"needles":9905,"streaked":9906,"gazes":9907,"##front":9908,"shaw":9909,"photogra":9910,"certainty":9911,"padded":9912,"rumm":9913,"chatting":9914,"##atch":9915,"grain":9916,"##occ":9917,"poet":9918,"urgency":9919,"##leton":9920,"overheard":9921,"vibr":9922,"wyatt":9923,"loosened":9924,"practiced":9925,"uttered":9926,"receiver":9927,"proced":9928,"reflex":9929,"fidget":9930,"complaint":9931,"campaign":9932,"obed":9933,"picnic":9934,"##ivan":9935,"tabitha":9936,"admire":9937,"anxiously":9938,"clu":9939,"receiving":9940,"##aulted":9941,"administ":9942,"vince":9943,"handc":9944,"osc":9945,"reid":9946,"##ria":9947,"countered":9948,"##0s":9949,"unmist":9950,"folder":9951,"retired":9952,"traditional":9953,"stumble":9954,"carrie":9955,"snakes":9956,"squealed":9957,"masculine":9958,"prem":9959,"refuge":9960,"cooler":9961,"ezio":9962,"engagement":9963,"manners":9964,"philosoph":9965,"bax":9966,"compart":9967,"execut":9968,"conflict":9969,"drives":9970,"chuckles":9971,"visitor":9972,"terminal":9973,"towers":9974,"portra":9975,"vengeance":9976,"emotionally":9977,"maze":9978,"stradd":9979,"opponent":9980,"burnett":9981,"pumped":9982,"frig":9983,"cafe":9984,"bitterly":9985,"georgie":9986,"sauce":9987,"ts":9988,"oven":9989,"reins":9990,"concealed":9991,"promptly":9992,"advised":9993,"cafeter":9994,"straps":9995,"announ":9996,"coax":9997,"oc":9998,"horns":9999,"fights":10000,"21":10001,"lynn":10002,"swiped":10003,"doyle":10004,"challenged":10005,"retorted":10006,"unbear":10007,"##works":10008,"unsett":10009,"appeal":10010,"##aser":10011,"roommate":10012,"##wr":10013,"posture":10014,"stamm":10015,"tile":10016,"darcy":10017,"##prints":10018,"##eraire":10019,"bundle":10020,"temeraire":10021,"suspended":10022,"whimpered":10023,"lara":10024,"aub":10025,"pall":10026,"religion":10027,"fallon":10028,"jett":10029,"##shirt":10030,"henri":10031,"anticipated":10032,"##ahn":10033,"hush":10034,"##chal":10035,"healer":10036,"veronica":10037,"brist":10038,"kait":10039,"development":10040,"##rigg":10041,"barry":10042,"contrib":10043,"mam":10044,"##dia":10045,"menacing":10046,"yank":10047,"imprison":10048,"transformed":10049,"texted":10050,"bait":10051,"puck":10052,"battles":10053,"florida":10054,"crowds":10055,"warming":10056,"mildly":10057,"swelled":10058,"epis":10059,"excitedly":10060,"drawers":10061,"accomplished":10062,"tourists":10063,"clawed":10064,"raked":10065,"ashes":10066,"hushed":10067,"underworld":10068,"cafeteria":10069,"shannon":10070,"clark":10071,"##lene":10072,"teams":10073,"aroused":10074,"##hail":10075,"annab":10076,"punching":10077,"candid":10078,"fatig":10079,"blamed":10080,"abdomen":10081,"guardians":10082,"encouraging":10083,"regan":10084,"contempt":10085,"unne":10086,"bellowed":10087,"##bra":10088,"tingling":10089,"unbutton":10090,"worship":10091,"##chell":10092,"gemma":10093,"clarity":10094,"infant":10095,"walter":10096,"caves":10097,"communicate":10098,"july":10099,"bracelet":10100,"kills":10101,"scientists":10102,"vas":10103,"##inges":10104,"##apt":10105,"dren":10106,"majority":10107,"gloom":10108,"unseen":10109,"##ntice":10110,"bure":10111,"reun":10112,"disguise":10113,"##door":10114,"towering":10115,"presum":10116,"##mans":10117,"wayne":10118,"donovan":10119,"gret":10120,"smashwords":10121,"helena":10122,"##ilst":10123,"##igner":10124,"performed":10125,"messing":10126,"aur":10127,"darting":10128,"carly":10129,"lodge":10130,"sobbed":10131,"##ril":10132,"attended":10133,"rae":10134,"fascinating":10135,"temptation":10136,"engulf":10137,"gleamed":10138,"hans":10139,"terry":10140,"therapy":10141,"gren":10142,"aircraft":10143,"sphere":10144,"stalking":10145,"##hers":10146,"brooks":10147,"##hett":10148,"##iration":10149,"##bted":10150,"passionate":10151,"yawned":10152,"adorable":10153,"becca":10154,"vain":10155,"ditch":10156,"scrut":10157,"moans":10158,"chemical":10159,"ugh":10160,"kath":10161,"##lom":10162,"kendall":10163,"fay":10164,"hating":10165,"reaper":10166,"##mph":10167,"graceful":10168,"shields":10169,"mutter":10170,"##ulars":10171,"artifact":10172,"knots":10173,"backup":10174,"redhead":10175,"balth":10176,"printed":10177,"flour":10178,"promising":10179,"steaming":10180,"artem":10181,"solar":10182,"##utes":10183,"vamps":10184,"pepper":10185,"hideous":10186,"lila":10187,"hesitantly":10188,"congratulations":10189,"##of":10190,"chambers":10191,"punct":10192,"tickets":10193,"courtney":10194,"inquired":10195,"seattle":10196,"groaning":10197,"tumbling":10198,"controlling":10199,"curly":10200,"exquisite":10201,"zipper":10202,"etched":10203,"mates":10204,"mikhail":10205,"casc":10206,"chor":10207,"sipping":10208,"clinic":10209,"mesmer":10210,"profound":10211,"sanity":10212,"surveyed":10213,"openly":10214,"##ista":10215,"subd":10216,"vanessa":10217,"dimension":10218,"##ambling":10219,"ot":10220,"verity":10221,"disor":10222,"dancer":10223,"soaking":10224,"loft":10225,"verge":10226,"dunge":10227,"##scent":10228,"organized":10229,"spec":10230,"deputy":10231,"shattering":10232,"entertainment":10233,"overd":10234,"alliance":10235,"weeping":10236,"liquor":10237,"pau":10238,"zeus":10239,"ups":10240,"established":10241,"residence":10242,"lac":10243,"egy":10244,"cigarettes":10245,"fluff":10246,"sixth":10247,"##coat":10248,"##giving":10249,"cong":10250,"regain":10251,"coop":10252,"lexie":10253,"amos":10254,"tucking":10255,"sandwic":10256,"occasions":10257,"unnecess":10258,"walt":10259,"butler":10260,"ideal":10261,"extraordinary":10262,"daph":10263,"##yon":10264,"marrying":10265,"freshly":10266,"mainly":10267,"shawn":10268,"bourne":10269,"endure":10270,"accurate":10271,"dag":10272,"artemis":10273,"****":10274,"skirts":10275,"longed":10276,"obeyed":10277,"household":10278,"##sell":10279,"millie":10280,"chim":10281,"visibly":10282,"optim":10283,"rou":10284,"inched":10285,"cupping":10286,"races":10287,"poker":10288,"amusing":10289,"tempting":10290,"mare":10291,"##hell":10292,"##world":10293,"ding":10294,"factory":10295,"exotic":10296,"diamonds":10297,"laurel":10298,"lawyers":10299,"snarl":10300,"##eenth":10301,"generation":10302,"susannah":10303,"scheduled":10304,"limo":10305,"colorful":10306,"embraced":10307,"##aver":10308,"someplace":10309,"crypt":10310,"limb":10311,"adol":10312,"suz":10313,"fuzzy":10314,"##iah":10315,"perspective":10316,"remn":10317,"automatic":10318,"extent":10319,"johnson":10320,"egypt":10321,"orph":10322,"jackie":10323,"mig":10324,"layne":10325,"youngest":10326,"reub":10327,"##standing":10328,"moo":10329,"sizz":10330,"summon":10331,"perimeter":10332,"##idded":10333,"frowns":10334,"tracked":10335,"rape":10336,"##sis":10337,"snuck":10338,"exasperated":10339,"pickup":10340,"##acular":10341,"craved":10342,"jewels":10343,"ellen":10344,"excuses":10345,"neal":10346,"culture":10347,"container":10348,"principal":10349,"erik":10350,"privile":10351,"captive":10352,"perse":10353,"kenned":10354,"wilder":10355,"welcoming":10356,"international":10357,"caressing":10358,"anchor":10359,"showered":10360,"situations":10361,"authorities":10362,"dizz":10363,"yanking":10364,"benny":10365,"bram":10366,"heavier":10367,"reference":10368,"slither":10369,"rocket":10370,"cri":10371,"peak":10372,"nickn":10373,"sketch":10374,"##storm":10375,"troubles":10376,"via":10377,"whistled":10378,"stroll":10379,"##occup":10380,"japanese":10381,"blessing":10382,"necessarily":10383,"il":10384,"##inations":10385,"satell":10386,"increase":10387,"dot":10388,"shriek":10389,"##itution":10390,"traged":10391,"wars":10392,"glint":10393,"##esc":10394,"latter":10395,"shuddering":10396,"nonchal":10397,"complaining":10398,"sneered":10399,"reappear":10400,"trips":10401,"advert":10402,"leaping":10403,"##ember":10404,"bureau":10405,"venom":10406,"impulse":10407,"render":10408,"##opard":10409,"gan":10410,"wrigg":10411,"##piece":10412,"maintained":10413,"costume":10414,"resigned":10415,"reverse":10416,"muscled":10417,"bruce":10418,"claudia":10419,"wee":10420,"harness":10421,"paradise":10422,"fergus":10423,"jut":10424,"tee":10425,"fills":10426,"bled":10427,"chir":10428,"locate":10429,"briefcase":10430,"swat":10431,"frequently":10432,"sympathetic":10433,"##xton":10434,"frankie":10435,"##run":10436,"grimace":10437,"coated":10438,"loung":10439,"electronic":10440,"perpet":10441,"anderson":10442,"##oooo":10443,"guid":10444,"bian":10445,"hesitant":10446,"flexed":10447,"witnesses":10448,"harris":10449,"mitchell":10450,"ace":10451,"rotten":10452,"alexandra":10453,"slower":10454,"manic":10455,"sends":10456,"manor":10457,"crimes":10458,"catal":10459,"daphne":10460,"accounts":10461,"reuben":10462,"anguish":10463,"pops":10464,"##kers":10465,"glistening":10466,"##gara":10467,"brandy":10468,"employee":10469,"mackenzie":10470,"confusing":10471,"lash":10472,"##arring":10473,"vomit":10474,"##section":10475,"whilst":10476,"err":10477,"mau":10478,"margu":10479,"flynn":10480,"granny":10481,"nov":10482,"behave":10483,"baron":10484,"micha":10485,"bursting":10486,"americans":10487,"##sen":10488,"giggles":10489,"risen":10490,"scarred":10491,"stem":10492,"interests":10493,"misunder":10494,"uncon":10495,"busted":10496,"tid":10497,"relative":10498,"wardrobe":10499,"boxers":10500,"##lod":10501,"rebu":10502,"admiring":10503,"vines":10504,"grows":10505,"acts":10506,"previously":10507,"loomed":10508,"claims":10509,"cheating":10510,"polgara":10511,"##urned":10512,"abdu":10513,"##rial":10514,"evans":10515,"nestled":10516,"chatter":10517,"kennedy":10518,"discreet":10519,"modest":10520,"knox":10521,"robbie":10522,"mira":10523,"##adel":10524,"glee":10525,"alternative":10526,"panc":10527,"audible":10528,"patting":10529,"composure":10530,"signature":10531,"flutter":10532,"selected":10533,"twitching":10534,"intric":10535,"regina":10536,"##uls":10537,"cattle":10538,"tennis":10539,"cot":10540,"##sters":10541,"uncertainty":10542,"eman":10543,"elves":10544,"nausea":10545,"momma":10546,"calming":10547,"bass":10548,"doubled":10549,"manif":10550,"gag":10551,"##ayne":10552,"##ox":10553,"fluttering":10554,"remarkable":10555,"adopted":10556,"lydia":10557,"##oping":10558,"manny":10559,"sprinted":10560,"carolina":10561,"filed":10562,"blankly":10563,"surveill":10564,"davis":10565,"kenny":10566,"writh":10567,"india":10568,"beats":10569,"##uished":10570,"ecstasy":10571,"gaunt":10572,"supposedly":10573,"##olai":10574,"alexis":10575,"marina":10576,"comparison":10577,"bugs":10578,"departure":10579,"apply":10580,"##kerchief":10581,"suggesting":10582,"revelation":10583,"##oused":10584,"alarmed":10585,"handkerchief":10586,"colby":10587,"pyram":10588,"pupils":10589,"bandage":10590,"parlor":10591,"viper":10592,"##child":10593,"glam":10594,"blan":10595,"behalf":10596,"repeating":10597,"keith":10598,"outcome":10599,"surveillance":10600,"corr":10601,"tren":10602,"scientist":10603,"##imated":10604,"sarcastically":10605,"potatoes":10606,"viktor":10607,"dak":10608,"pursuit":10609,"norman":10610,"kam":10611,"##ucks":10612,"##ounted":10613,"splash":10614,"aiming":10615,"jammed":10616,"##mont":10617,"winkler":10618,"brenn":10619,"astonishment":10620,"quivering":10621,"vine":10622,"basketball":10623,"foundation":10624,"figuring":10625,"tremend":10626,"doorbell":10627,"protru":10628,"##cript":10629,"interrupting":10630,"ranks":10631,"eyelashes":10632,"bears":10633,"wheres":10634,"finest":10635,"strides":10636,"bleak":10637,"dawson":10638,"reese":10639,"robb":10640,"wives":10641,"tracy":10642,"flatly":10643,"helplessly":10644,"##ae":10645,"##amon":10646,"contacts":10647,"apologized":10648,"anonym":10649,"connections":10650,"##rise":10651,"abuse":10652,"lugg":10653,"product":10654,"granite":10655,"##anky":10656,"glob":10657,"permanently":10658,"angled":10659,"suspicions":10660,"instance":10661,"##nar":10662,"joyah":10663,"gor":10664,"##estic":10665,"blushing":10666,"coldly":10667,"dict":10668,"nolan":10669,"wiggled":10670,"butterflies":10671,"couples":10672,"##cedes":10673,"##anity":10674,"ticked":10675,"prophecy":10676,"archit":10677,"customer":10678,"linen":10679,"cookie":10680,"piles":10681,"francisco":10682,"aggressive":10683,"involunt":10684,"nape":10685,"swings":10686,"##soever":10687,"octo":10688,"sagged":10689,"niece":10690,"georgia":10691,"kade":10692,"ark":10693,"snuggled":10694,"punished":10695,"gulp":10696,"##ooking":10697,"grandd":10698,"rehe":10699,"moisture":10700,"acquaint":10701,"##zes":10702,"lef":10703,"howled":10704,"barking":10705,"ribbon":10706,"##umin":10707,"unfair":10708,"hummed":10709,"luggage":10710,"exhib":10711,"architect":10712,"eug":10713,"solo":10714,"jacqu":10715,"instrument":10716,"awakened":10717,"speechless":10718,"demet":10719,"rasped":10720,"dimly":10721,"gabrielle":10722,"crisis":10723,"scrap":10724,"stored":10725,"rumbling":10726,"unsp":10727,"fidd":10728,"october":10729,"rash":10730,"referred":10731,"boards":10732,"franklin":10733,"anya":10734,"dimin":10735,"##burg":10736,"wears":10737,"critical":10738,"##vi":10739,"coats":10740,"##ookie":10741,"priests":10742,"hord":10743,"alison":10744,"sickness":10745,"##aggers":10746,"peyton":10747,"##you":10748,"decade":10749,"acceptance":10750,"magazines":10751,"##othy":10752,"bands":10753,"spectacular":10754,"howl":10755,"cruise":10756,"thu":10757,"bodyguard":10758,"ultimately":10759,"##yd":10760,"flopped":10761,"panted":10762,"eb":10763,"twil":10764,"rebell":10765,"celebration":10766,"boulder":10767,"tina":10768,"fitted":10769,"demeanor":10770,"legged":10771,"plac":10772,"##ienne":10773,"handling":10774,"carolyn":10775,"gregory":10776,"agitated":10777,"vick":10778,"siblings":10779,"##atore":10780,"##mat":10781,"gingerly":10782,"spiritual":10783,"eagle":10784,"compartment":10785,"bruise":10786,"obtain":10787,"grandparent":10788,"##encies":10789,"monkey":10790,"illness":10791,"uneas":10792,"nanny":10793,"##etta":10794,"denny":10795,"23":10796,"appetite":10797,"springs":10798,"skim":10799,"charging":10800,"pirate":10801,"unz":10802,"mouthful":10803,"apron":10804,"shaved":10805,"noting":10806,"nam":10807,"##hun":10808,"rescued":10809,"##brush":10810,"concentrating":10811,"diet":10812,"celia":10813,"trigg":10814,"creation":10815,"tilting":10816,"microphone":10817,"##put":10818,"lurking":10819,"scraping":10820,"colton":10821,"bronze":10822,"responding":10823,"ellis":10824,"discarded":10825,"warden":10826,"jin":10827,"valerie":10828,"wheeled":10829,"subur":10830,"escal":10831,"execution":10832,"ori":10833,"rotting":10834,"rumor":10835,"treas":10836,"boiling":10837,"mull":10838,"fraction":10839,"##ogue":10840,"courtesy":10841,"pussy":10842,"##enne":10843,"##assed":10844,"womans":10845,"trails":10846,"fletcher":10847,"commercial":10848,"appreciation":10849,"greatly":10850,"baff":10851,"groin":10852,"theat":10853,"jell":10854,"stammered":10855,"feb":10856,"shadowy":10857,"gis":10858,"elements":10859,"purposes":10860,"supported":10861,"conceal":10862,"shuffling":10863,"##long":10864,"cocky":10865,"##aina":10866,"threaten":10867,"depending":10868,"rippled":10869,"packs":10870,"streamed":10871,"clicking":10872,"scenario":10873,"##olding":10874,"jaime":10875,"lamps":10876,"whirl":10877,"commands":10878,"blaze":10879,"umb":10880,"sensations":10881,"towels":10882,"hyd":10883,"queens":10884,"guild":10885,"vacant":10886,"##was":10887,"grove":10888,"##lette":10889,"bluff":10890,"gaw":10891,"denying":10892,"hull":10893,"yourselves":10894,"writhing":10895,"gill":10896,"samp":10897,"##neys":10898,"virginia":10899,"excess":10900,"dreadful":10901,"chapel":10902,"leonard":10903,"gene":10904,"twilight":10905,"whatsoever":10906,"##olic":10907,"composed":10908,"exploring":10909,"canop":10910,"glided":10911,"coal":10912,"##hift":10913,"hurriedly":10914,"whipping":10915,"howling":10916,"conser":10917,"##hale":10918,"harmless":10919,"maris":10920,"wrenched":10921,"cans":10922,"strangled":10923,"barr":10924,"desires":10925,"paranoid":10926,"muted":10927,"nove":10928,"tran":10929,"hotter":10930,"custody":10931,"siren":10932,"swelling":10933,"sirens":10934,"tangle":10935,"##athom":10936,"comprehend":10937,"jed":10938,"controls":10939,"vow":10940,"gerald":10941,"throbbed":10942,"mortals":10943,"resembled":10944,"typed":10945,"flattened":10946,"##car":10947,"emptied":10948,"winston":10949,"tavern":10950,"isolated":10951,"kow":10952,"glued":10953,"rosie":10954,"unin":10955,"searing":10956,"##ilah":10957,"denial":10958,"##ilda":10959,"bever":10960,"##oh":10961,"indicate":10962,"dodge":10963,"cron":10964,"dazz":10965,"goat":10966,"reporters":10967,"surprises":10968,"cheekbones":10969,"ruled":10970,"luce":10971,"salvatore":10972,"scand":10973,"wither":10974,"undou":10975,"##lend":10976,"silas":10977,"##nut":10978,"pairs":10979,"mole":10980,"persons":10981,"marian":10982,"marissa":10983,"lipstick":10984,"reyes":10985,"woo":10986,"affairs":10987,"flicking":10988,"poem":10989,"undoubted":10990,"increasingly":10991,"sheath":10992,"remorse":10993,"genetic":10994,"emerson":10995,"incon":10996,"tingle":10997,"##ij":10998,"donna":10999,"mirrors":11000,"sum":11001,"bewildered":11002,"treating":11003,"consuming":11004,"craving":11005,"clubs":11006,"telepath":11007,"obsessed":11008,"electrical":11009,"vial":11010,"addict":11011,"mons":11012,"vault":11013,"##ester":11014,"tanned":11015,"companies":11016,"kimber":11017,"cramped":11018,"##inals":11019,"crick":11020,"approve":11021,"casino":11022,"tentatively":11023,"dusk":11024,"marguer":11025,"##lon":11026,"##xon":11027,"worm":11028,"nedra":11029,"steak":11030,"depressed":11031,"odor":11032,"##iantly":11033,"stamped":11034,"reassure":11035,"prost":11036,"unmistakable":11037,"##pent":11038,"conduct":11039,"clare":11040,"plastered":11041,"kad":11042,"unexpectedly":11043,"eg":11044,"howard":11045,"sufficient":11046,"inspector":11047,"venture":11048,"quicker":11049,"##wan":11050,"chimed":11051,"candace":11052,"meadow":11053,"commitment":11054,"iris":11055,"helm":11056,"wires":11057,"brittany":11058,"100":11059,"rejo":11060,"groans":11061,"gum":11062,"ii":11063,"flaming":11064,"selena":11065,"marguerite":11066,"pige":11067,"cram":11068,"##licted":11069,"landon":11070,"tastes":11071,"chilled":11072,"creaked":11073,"convenient":11074,"wilson":11075,"applic":11076,"tongues":11077,"scenes":11078,"beans":11079,"nuc":11080,"tragedy":11081,"reduced":11082,"ballroom":11083,"widen":11084,"bernard":11085,"##alle":11086,"badge":11087,"corpses":11088,"causes":11089,"##anche":11090,"##strom":11091,"cuffs":11092,"incap":11093,"##gor":11094,"mutual":11095,"javier":11096,"disd":11097,"makeshift":11098,"grandparents":11099,"writer":11100,"hyper":11101,"payment":11102,"bail":11103,"bates":11104,"hardest":11105,"bombs":11106,"disorient":11107,"undoubtedly":11108,"battery":11109,"astonished":11110,"vimes":11111,"ther":11112,"seet":11113,"hears":11114,"tet":11115,"arena":11116,"identified":11117,"clues":11118,"##assing":11119,"shuttle":11120,"ivory":11121,"observation":11122,"ald":11123,"haley":11124,"stubble":11125,"meters":11126,"buckled":11127,"slashed":11128,"##onic":11129,"ck":11130,"pouch":11131,"herd":11132,"cela":11133,"stinging":11134,"freck":11135,"evelyn":11136,"bathed":11137,"harshly":11138,"vice":11139,"islands":11140,"softer":11141,"doin":11142,"##master":11143,"balthazar":11144,"##rice":11145,"smold":11146,"rend":11147,"jogged":11148,"hugs":11149,"unbelievable":11150,"lend":11151,"rider":11152,"smeared":11153,"committ":11154,"hollywood":11155,"static":11156,"sadd":11157,"##jamas":11158,"tunic":11159,"butterfly":11160,"aval":11161,"stiffly":11162,"brianna":11163,"##ahl":11164,"streak":11165,"##lest":11166,"condem":11167,"delilah":11168,"forgiveness":11169,"operations":11170,"twig":11171,"reh":11172,"experiences":11173,"jasper":11174,"smother":11175,"##igo":11176,"classic":11177,"diary":11178,"matches":11179,"##iat":11180,"##ensively":11181,"coup":11182,"strongest":11183,"climax":11184,"admiral":11185,"revolution":11186,"spa":11187,"backside":11188,"designer":11189,"commotion":11190,"##iques":11191,"##net":11192,"shards":11193,"hooded":11194,"pinning":11195,"announcement":11196,"coco":11197,"radar":11198,"##inkles":11199,"capacity":11200,"tenderly":11201,"generations":11202,"##icians":11203,"greedy":11204,"unders":11205,"##stream":11206,"suffoc":11207,"sparkled":11208,"scarcely":11209,"seductive":11210,"piv":11211,"importantly":11212,"subjects":11213,"jury":11214,"risked":11215,"clutch":11216,"transferred":11217,"##ffe":11218,"parting":11219,"##aryn":11220,"paces":11221,"managing":11222,"waistband":11223,"cape":11224,"##going":11225,"clench":11226,"chilly":11227,"ominous":11228,"smallest":11229,"##oured":11230,"schools":11231,"amu":11232,"vibrated":11233,"blazed":11234,"slut":11235,"fixing":11236,"sweatshirt":11237,"narrowing":11238,"muster":11239,"oly":11240,"weed":11241,"tomas":11242,"gnaw":11243,"littered":11244,"shelby":11245,"##occupied":11246,"poised":11247,"subc":11248,"negle":11249,"growth":11250,"crude":11251,"worker":11252,"brennan":11253,"measured":11254,"riot":11255,"thumping":11256,"wouldve":11257,"lola":11258,"##ortion":11259,"refres":11260,"crosses":11261,"policy":11262,"legion":11263,"corridors":11264,"exterior":11265,"concert":11266,"hissing":11267,"##itious":11268,"recording":11269,"wept":11270,"skies":11271,"guarding":11272,"abbey":11273,"endelle":11274,"legit":11275,"keeper":11276,"perce":11277,"gestures":11278,"alc":11279,"clint":11280,"morris":11281,"angles":11282,"balanced":11283,"celaena":11284,"thie":11285,"recorded":11286,"unnatural":11287,"containing":11288,"babys":11289,"jai":11290,"texts":11291,"survivors":11292,"september":11293,"waterfall":11294,"substance":11295,"kier":11296,"curran":11297,"discer":11298,"hardy":11299,"##cloth":11300,"priority":11301,"vaugh":11302,"drenched":11303,"ross":11304,"blindly":11305,"draft":11306,"daggers":11307,"halluc":11308,"cycle":11309,"accusing":11310,"suppl":11311,"infer":11312,"simone":11313,"longest":11314,"##cs":11315,"goth":11316,"##bbles":11317,"reader":11318,"counts":11319,"oversized":11320,"naughty":11321,"commanding":11322,"reckless":11323,"##wny":11324,"blend":11325,"##iors":11326,"lucia":11327,"nucle":11328,"vert":11329,"killers":11330,"sterling":11331,"brightened":11332,"unbearable":11333,"skilled":11334,"olymp":11335,"##burst":11336,"mechanical":11337,"pulsed":11338,"chast":11339,"grayson":11340,"##taking":11341,"borrowed":11342,"boil":11343,"spoiled":11344,"speakers":11345,"bryan":11346,"##edly":11347,"##hu":11348,"photographer":11349,"##step":11350,"paige":11351,"interfere":11352,"nun":11353,"regained":11354,"disconn":11355,"##stan":11356,"screeched":11357,"##kno":11358,"##break":11359,"mandy":11360,"dre":11361,"##uation":11362,"poster":11363,"burying":11364,"suitable":11365,"sentiment":11366,"dalinar":11367,"abra":11368,"traces":11369,"defined":11370,"horm":11371,"temporarily":11372,"peeking":11373,"vegetables":11374,"tier":11375,"independent":11376,"yield":11377,"gretchen":11378,"##boat":11379,"##burn":11380,"scheme":11381,"brock":11382,"colum":11383,"hurrying":11384,"dangerously":11385,"rivers":11386,"symbols":11387,"cannon":11388,"oclock":11389,"providing":11390,"marth":11391,"lyn":11392,"archie":11393,"##west":11394,"thal":11395,"##icity":11396,"marshal":11397,"fits":11398,"##edge":11399,"aback":11400,"mona":11401,"pandora":11402,"sandwiches":11403,"nell":11404,"##rics":11405,"angela":11406,"squirmed":11407,"recommend":11408,"shoots":11409,"rosa":11410,"disdain":11411,"visits":11412,"ruthless":11413,"vowed":11414,"relatives":11415,"grind":11416,"mischie":11417,"looming":11418,"gladly":11419,"supporting":11420,"bitterness":11421,"bubbles":11422,"spared":11423,"prose":11424,"murders":11425,"scientific":11426,"mischievous":11427,"beha":11428,"blinded":11429,"basha":11430,"thrusts":11431,"dawned":11432,"leis":11433,"kl":11434,"lids":11435,"sunrise":11436,"naz":11437,"##umm":11438,"wag":11439,"screens":11440,"plea":11441,"gaining":11442,"uniforms":11443,"planes":11444,"checks":11445,"patches":11446,"kicks":11447,"laser":11448,"##athing":11449,"teenagers":11450,"##roid":11451,"rattling":11452,"debate":11453,"##unning":11454,"chorus":11455,"##anse":11456,"targets":11457,"wonders":11458,"lure":11459,"##bie":11460,"explor":11461,"adjusting":11462,"sights":11463,"twe":11464,"antique":11465,"abe":11466,"easing":11467,"daim":11468,"##ouses":11469,"pointless":11470,"airpl":11471,"sweetness":11472,"demetri":11473,"vein":11474,"dax":11475,"beautifully":11476,"peoples":11477,"creative":11478,"dismay":11479,"zev":11480,"attending":11481,"hearth":11482,"##igning":11483,"hallow":11484,"disin":11485,"marching":11486,"prox":11487,"growls":11488,"scrubbed":11489,"endured":11490,"arts":11491,"harrison":11492,"lis":11493,"galen":11494,"medium":11495,"altered":11496,"##maid":11497,"##made":11498,"strick":11499,"spi":11500,"##pson":11501,"momentum":11502,"jolted":11503,"awaiting":11504,"conviction":11505,"sund":11506,"rebel":11507,"##itter":11508,"goodnight":11509,"tart":11510,"tits":11511,"##chess":11512,"feral":11513,"scales":11514,"plump":11515,"sarcastic":11516,"careless":11517,"thumped":11518,"shitty":11519,"bedrooms":11520,"leto":11521,"posted":11522,"diver":11523,"moral":11524,"treacher":11525,"shovel":11526,"warmly":11527,"valer":11528,"divided":11529,"emptiness":11530,"presumably":11531,"galax":11532,"beads":11533,"bot":11534,"cable":11535,"ski":11536,"dissip":11537,"##aza":11538,"lesser":11539,"chemist":11540,"mercedes":11541,"gordon":11542,"##stein":11543,"ricky":11544,"##wal":11545,"leisure":11546,"seas":11547,"##ersed":11548,"deepest":11549,"##udging":11550,"collecting":11551,"wryly":11552,"yup":11553,"slacks":11554,"craz":11555,"federal":11556,"expanse":11557,"deafening":11558,"kelsey":11559,"randy":11560,"pla":11561,"binding":11562,"urging":11563,"anti":11564,"dill":11565,"rehears":11566,"tents":11567,"gunfire":11568,"exaggerated":11569,"appealing":11570,"unspoken":11571,"accomp":11572,"slab":11573,"marine":11574,"squinting":11575,"honored":11576,"thirsty":11577,"##imer":11578,"##wyl":11579,"listed":11580,"recovery":11581,"sandals":11582,"doorkno":11583,"ezra":11584,"durn":11585,"forearms":11586,"africa":11587,"parall":11588,"production":11589,"drawled":11590,"carries":11591,"duchess":11592,"annabelle":11593,"##tin":11594,"beaming":11595,"rearview":11596,"tammy":11597,"hurled":11598,"trim":11599,"wince":11600,"##omen":11601,"proposal":11602,"gracie":11603,"revers":11604,"talents":11605,"squeaked":11606,"predator":11607,"monit":11608,"applause":11609,"vod":11610,"##iko":11611,"topped":11612,"attent":11613,"churning":11614,"disappearance":11615,"motherf":11616,"infuri":11617,"resur":11618,"contacted":11619,"whod":11620,"benjam":11621,"departed":11622,"fabulous":11623,"ip":11624,"rico":11625,"hangs":11626,"puddle":11627,"episode":11628,"sample":11629,"austral":11630,"butch":11631,"rifles":11632,"caps":11633,"plainly":11634,"immune":11635,"50":11636,"tol":11637,"dodged":11638,"candi":11639,"caine":11640,"sailing":11641,"##nth":11642,"va":11643,"angus":11644,"pean":11645,"rice":11646,"wad":11647,"stale":11648,"resign":11649,"owns":11650,"eleph":11651,"fascination":11652,"##wyn":11653,"lonel":11654,"wist":11655,"angeles":11656,"remnants":11657,"douglas":11658,"stifled":11659,"arching":11660,"upwards":11661,"dew":11662,"softness":11663,"shallan":11664,"satisfy":11665,"pondered":11666,"buckle":11667,"evol":11668,"challenging":11669,"paws":11670,"germ":11671,"##eys":11672,"tons":11673,"reapers":11674,"scrambling":11675,"fairies":11676,"diplom":11677,"dignity":11678,"tramp":11679,"shrink":11680,"canopy":11681,"rena":11682,"##ggs":11683,"personnel":11684,"bathing":11685,"allies":11686,"fatal":11687,"bradley":11688,"##ctures":11689,"##icks":11690,"torches":11691,"##itively":11692,"libby":11693,"primary":11694,"resolved":11695,"cyl":11696,"shadowhun":11697,"cluster":11698,"consult":11699,"considerable":11700,"strikes":11701,"chuckling":11702,"hostile":11703,"january":11704,"trance":11705,"waits":11706,"stur":11707,"shadowed":11708,"##riet":11709,"disple":11710,"mallory":11711,"jas":11712,"splend":11713,"broadcast":11714,"edition":11715,"plopped":11716,"satellite":11717,"chef":11718,"cert":11719,"fearful":11720,"continent":11721,"bennett":11722,"accompany":11723,"italy":11724,"rejected":11725,"deed":11726,"faltered":11727,"dotted":11728,"cupboard":11729,"loth":11730,"apologies":11731,"mun":11732,"##hill":11733,"##auc":11734,"fisted":11735,"twenties":11736,"##fold":11737,"talented":11738,"assembled":11739,"hust":11740,"sofie":11741,"lashed":11742,"##ati":11743,"smar":11744,"somber":11745,"pursue":11746,"##phic":11747,"frenzy":11748,"possessive":11749,"perple":11750,"curses":11751,"worthless":11752,"rely":11753,"sapp":11754,"##udes":11755,"widening":11756,"vet":11757,"compare":11758,"##iry":11759,"darren":11760,"praise":11761,"bounce":11762,"ced":11763,"##uously":11764,"##itz":11765,"nothin":11766,"butcher":11767,"farmer":11768,"marvel":11769,"cheered":11770,"denise":11771,"cheerfully":11772,"##rings":11773,"louise":11774,"collins":11775,"statues":11776,"sickening":11777,"boiled":11778,"##iddy":11779,"tul":11780,"standards":11781,"itch":11782,"exped":11783,"label":11784,"sliver":11785,"##uffs":11786,"belongings":11787,"##phones":11788,"wendy":11789,"sailed":11790,"blackened":11791,"insight":11792,"reassured":11793,"vodka":11794,"##esa":11795,"screwing":11796,"##roe":11797,"insanity":11798,"approved":11799,"singer":11800,"unnecessary":11801,"##amic":11802,"phant":11803,"widow":11804,"##oly":11805,"sane":11806,"stations":11807,"serial":11808,"devices":11809,"##bour":11810,"whined":11811,"angelica":11812,"pajamas":11813,"lacked":11814,"gurg":11815,"athlet":11816,"##gage":11817,"genev":11818,"ic":11819,"shepher":11820,"brushes":11821,"##nox":11822,"camps":11823,"turkey":11824,"evapor":11825,"betty":11826,"planets":11827,"thanksgiving":11828,"##held":11829,"countries":11830,"skinned":11831,"dads":11832,"reverber":11833,"oy":11834,"yog":11835,"admiration":11836,"presents":11837,"##osis":11838,"colleagues":11839,"willed":11840,"##rina":11841,"bobbed":11842,"straightening":11843,"##lines":11844,"spitting":11845,"irony":11846,"disting":11847,"shin":11848,"musical":11849,"ventured":11850,"quant":11851,"stables":11852,"heed":11853,"moms":11854,"renee":11855,"##vol":11856,"canyon":11857,"##cases":11858,"farewell":11859,"successfully":11860,"protector":11861,"latch":11862,"proving":11863,"sniffing":11864,"adopt":11865,"scowling":11866,"##bird":11867,"regularly":11868,"welled":11869,"imperial":11870,"volunteered":11871,"tremendous":11872,"##iots":11873,"impatience":11874,"pronounced":11875,"tread":11876,"radiated":11877,"invasion":11878,"observe":11879,"flooding":11880,"reson":11881,"bren":11882,"assassins":11883,"##finger":11884,"facial":11885,"##ieve":11886,"##enson":11887,"strewn":11888,"seventh":11889,"fools":11890,"blinds":11891,"##orous":11892,"ferry":11893,"insec":11894,"esp":11895,"pros":11896,"contrary":11897,"lest":11898,"trotted":11899,"compelled":11900,"connecting":11901,"doorknob":11902,"psycho":11903,"knotted":11904,"potent":11905,"wincing":11906,"##ocr":11907,"impass":11908,"##vations":11909,"vibrating":11910,"karl":11911,"tasha":11912,"hmmm":11913,"raining":11914,"copyright":11915,"termin":11916,"##oria":11917,"guiding":11918,"trek":11919,"upt":11920,"##renia":11921,"comfortably":11922,"surviving":11923,"linger":11924,"sharon":11925,"cigar":11926,"shrill":11927,"humiliation":11928,"chained":11929,"warmer":11930,"pedest":11931,"dup":11932,"ushered":11933,"parade":11934,"nuclear":11935,"bursts":11936,"slippery":11937,"effectively":11938,"ironic":11939,"##aneous":11940,"ruler":11941,"november":11942,"meets":11943,"spiral":11944,"depression":11945,"boast":11946,"##obile":11947,"volcan":11948,"acquired":11949,"##eted":11950,"##acey":11951,"skimmed":11952,"ashton":11953,"nay":11954,"##ustered":11955,"emerge":11956,"entertaining":11957,"bikini":11958,"kinc":11959,"december":11960,"cunning":11961,"glazed":11962,"nearer":11963,"sylvia":11964,"iona":11965,"chal":11966,"awaited":11967,"ancestors":11968,"tink":11969,"slaughter":11970,"benjamin":11971,"##________":11972,"acceptable":11973,"polish":11974,"##gard":11975,"envy":11976,"sabine":11977,"##elope":11978,"##ggie":11979,"unfolded":11980,"soothe":11981,"raid":11982,"satisfying":11983,"catcher":11984,"##********":11985,"thri":11986,"elite":11987,"division":11988,"stabbing":11989,"##umbered":11990,"comr":11991,"enforce":11992,"##ailing":11993,"baked":11994,"nas":11995,"differences":11996,"published":11997,"titan":11998,"daunt":11999,"rubs":12000,"shh":12001,"essential":12002,"##lie":12003,"interven":12004,"graduated":12005,"blah":12006,"champion":12007,"nickname":12008,"rubble":12009,"##life":12010,"brakes":12011,"reflecting":12012,"tah":12013,"warrant":12014,"##izer":12015,"interact":12016,"shrugging":12017,"##bedded":12018,"dungeon":12019,"stressed":12020,"artific":12021,"pirates":12022,"rented":12023,"##inable":12024,"handwr":12025,"weeds":12026,"walkway":12027,"views":12028,"raped":12029,"erase":12030,"sins":12031,"glossy":12032,"##ucker":12033,"slicing":12034,"sutton":12035,"distrib":12036,"wade":12037,"vit":12038,"whoo":12039,"glen":12040,"fey":12041,"distracting":12042,"confrontation":12043,"uneven":12044,"##imity":12045,"signaled":12046,"gargo":12047,"spook":12048,"demonst":12049,"gloria":12050,"phoe":12051,"fellows":12052,"frail":12053,"risks":12054,"##jack":12055,"transformation":12056,"##anes":12057,"extending":12058,"##ok":12059,"##akers":12060,"adams":12061,"kiara":12062,"smoked":12063,"intimidating":12064,"chess":12065,"sonia":12066,"stry":12067,"interjected":12068,"cheated":12069,"weakened":12070,"sass":12071,"issued":12072,"bulging":12073,"##wined":12074,"skylar":12075,"husbands":12076,"portrait":12077,"##ders":12078,"outta":12079,"mornings":12080,"gree":12081,"tory":12082,"liza":12083,"weaving":12084,"fraser":12085,"condo":12086,"interrogation":12087,"trickle":12088,"nave":12089,"rattle":12090,"boarding":12091,"lull":12092,"maps":12093,"poll":12094,"keyboard":12095,"reckon":12096,"##aki":12097,"loading":12098,"fleeting":12099,"##ew":12100,"chalk":12101,"evie":12102,"devoted":12103,"unease":12104,"##ettle":12105,"kincaid":12106,"seeped":12107,"practicing":12108,"expectations":12109,"cheerle":12110,"##antial":12111,"lave":12112,"vance":12113,"lawrence":12114,"glittered":12115,"overlooking":12116,"martha":12117,"##ridan":12118,"trickled":12119,"##sten":12120,"pyramid":12121,"confirmation":12122,"hunk":12123,"##ptions":12124,"budge":12125,"oscar":12126,"devyn":12127,"##irts":12128,"lill":12129,"sophistic":12130,"sparked":12131,"##leigh":12132,"resembl":12133,"sensible":12134,"wesley":12135,"braith":12136,"lud":12137,"##osaur":12138,"pins":12139,"hades":12140,"nikolai":12141,"fantasies":12142,"wraith":12143,"error":12144,"deliberate":12145,"sul":12146,"reverend":12147,"striding":12148,"pointedly":12149,"experiencing":12150,"durnik":12151,"zipped":12152,"exploding":12153,"conrad":12154,"homeless":12155,"flown":12156,"columns":12157,"silvery":12158,"niall":12159,"bolts":12160,"elo":12161,"sentinel":12162,"45":12163,"persuade":12164,"exasperation":12165,"quivered":12166,"brenda":12167,"receptionist":12168,"annwyl":12169,"individuals":12170,"rental":12171,"cheers":12172,"disappears":12173,"intimacy":12174,"cling":12175,"##fish":12176,"snatch":12177,"stricken":12178,"vibrant":12179,"stacks":12180,"nicolas":12181,"costs":12182,"scrape":12183,"fastened":12184,"##fight":12185,"deter":12186,"rustling":12187,"//":12188,"beers":12189,"thad":12190,"swig":12191,"##abouts":12192,"buddies":12193,"expose":12194,"colony":12195,"graduation":12196,"##cles":12197,"dose":12198,"aler":12199,"##ublic":12200,"naive":12201,"committee":12202,"bachel":12203,"descent":12204,"peters":12205,"hazy":12206,"instruments":12207,"cushions":12208,"hysterical":12209,"diving":12210,"##bes":12211,"##omic":12212,"resident":12213,"harold":12214,"##rud":12215,"##eem":12216,"cort":12217,"seldom":12218,"drums":12219,"insects":12220,"fighters":12221,"fulfill":12222,"tomato":12223,"phase":12224,"chemistry":12225,"management":12226,"restaurants":12227,"drugged":12228,"##anya":12229,"humid":12230,"hass":12231,"##asia":12232,"exists":12233,"severed":12234,"benji":12235,"tickled":12236,"bricks":12237,"draws":12238,"flap":12239,"seph":12240,"maccon":12241,"gyps":12242,"dedicated":12243,"brunette":12244,"leash":12245,"##hr":12246,"##bec":12247,"collin":12248,"jersey":12249,"rainbow":12250,"consideration":12251,"admission":12252,"##lit":12253,"ku":12254,"petite":12255,"sinister":12256,"crumbling":12257,"##acc":12258,"##ciating":12259,"russell":12260,"##ray":12261,"scurried":12262,"underest":12263,"defenses":12264,"mos":12265,"dipping":12266,"tourist":12267,"mexican":12268,"resemblance":12269,"highness":12270,"admitting":12271,"agenda":12272,"##ux":12273,"dyn":12274,"phoebe":12275,"decides":12276,"merr":12277,"confronted":12278,"aqu":12279,"chel":12280,"disrupt":12281,"bev":12282,"sadie":12283,"speeding":12284,"cozy":12285,"shivers":12286,"##ufact":12287,"vacu":12288,"procedure":12289,"myr":12290,"nipples":12291,"orch":12292,"straighten":12293,"squeak":12294,"intruder":12295,"bount":12296,"inspection":12297,"fewer":12298,"##ava":12299,"greasy":12300,"darkening":12301,"expectantly":12302,"alleg":12303,"sullen":12304,"pendant":12305,"hinges":12306,"incomp":12307,"loneliness":12308,"puffed":12309,"shimmered":12310,"gregori":12311,"trunks":12312,"plun":12313,"scarlett":12314,"##rep":12315,"neon":12316,"pinch":12317,"contrad":12318,"manufact":12319,"protoc":12320,"intellect":12321,"biceps":12322,"gel":12323,"weep":12324,"##ctic":12325,"sult":12326,"pew":12327,"powered":12328,"honeymo":12329,"solemnly":12330,"##gression":12331,"##zar":12332,"supreme":12333,"tenderness":12334,"republic":12335,"protocol":12336,"patron":12337,"virtually":12338,"sternly":12339,"tolerate":12340,"shim":12341,"blat":12342,"shroud":12343,"retreating":12344,"elvis":12345,"ley":12346,"battlefield":12347,"batter":12348,"detailed":12349,"dramatically":12350,"soc":12351,"accusation":12352,"brook":12353,"crunch":12354,"198":12355,"attendant":12356,"acute":12357,"##ods":12358,"##ensed":12359,"snarling":12360,"soothed":12361,"scotland":12362,"##dox":12363,"manh":12364,"colder":12365,"doomed":12366,"snack":12367,"gunsling":12368,"htt":12369,"##sea":12370,"twists":12371,"policeman":12372,"##leen":12373,"##idly":12374,"riders":12375,"arguments":12376,"unlock":12377,"lys":12378,"##ington":12379,"maddox":12380,"mutters":12381,"fleeing":12382,"graves":12383,"interv":12384,"mainten":12385,"globe":12386,"elemental":12387,"tablet":12388,"patri":12389,"##riers":12390,"##iciently":12391,"fries":12392,"institute":12393,"inhale":12394,"gliding":12395,"semes":12396,"hend":12397,"##nin":12398,"steele":12399,"eaves":12400,"paled":12401,"##rella":12402,"ridd":12403,"scotch":12404,"drill":12405,"gracefully":12406,"stere":12407,"dred":12408,"##thor":12409,"demonstr":12410,"musk":12411,"maker":12412,"##approp":12413,"peeling":12414,"loosely":12415,"##umsy":12416,"hammering":12417,"vale":12418,"cradling":12419,"aimee":12420,"blackmail":12421,"##icorn":12422,"cocktail":12423,"sadi":12424,"storms":12425,"crackled":12426,"crotch":12427,"infection":12428,"ordering":12429,"represented":12430,"fatigue":12431,"bash":12432,"ridden":12433,"bulb":12434,"clumsy":12435,"petty":12436,"encir":12437,"vag":12438,"##mun":12439,"##itate":12440,"dough":12441,"smoky":12442,"enveloped":12443,"scab":12444,"cheat":12445,"understands":12446,"pleasantly":12447,"envision":12448,"tho":12449,"packet":12450,"richards":12451,"prints":12452,"corin":12453,"denver":12454,"cindy":12455,"zak":12456,"nursing":12457,"arrogance":12458,"intensely":12459,"spade":12460,"brew":12461,"phen":12462,"efficient":12463,"countryside":12464,"hul":12465,"cathed":12466,"zip":12467,"##kar":12468,"heath":12469,"beckoned":12470,"celeste":12471,"doom":12472,"smarter":12473,"tobias":12474,"giants":12475,"40":12476,"curving":12477,"bully":12478,"vaughn":12479,"suppressed":12480,"lilith":12481,"haste":12482,"outright":12483,"##angular":12484,"stocking":12485,"luna":12486,"ornate":12487,"louisa":12488,"www":12489,"consol":12490,"squeal":12491,"restroom":12492,"impossibly":12493,"amulet":12494,"fuss":12495,"forcefully":12496,"newspapers":12497,"tentative":12498,"laken":12499,"nom":12500,"ticking":12501,"sew":12502,"untouched":12503,"dais":12504,"##mented":12505,"harvey":12506,"dexter":12507,"reads":12508,"clapping":12509,"mund":12510,"carpath":12511,"forgiven":12512,"##rance":12513,"poke":12514,"attach":12515,"whine":12516,"mourn":12517,"highlight":12518,"##ogen":12519,"prayers":12520,"tiles":12521,"corporate":12522,"##road":12523,"citizen":12524,"##gon":12525,"bland":12526,"draining":12527,"vane":12528,"##word":12529,"units":12530,"operating":12531,"rans":12532,"penelope":12533,"wig":12534,"clouded":12535,"viola":12536,"fortunate":12537,"pools":12538,"snickered":12539,"##keys":12540,"verbal":12541,"defending":12542,"monstrous":12543,"briskly":12544,"aroma":12545,"scratches":12546,"evalle":12547,"relentless":12548,"era":12549,"inspired":12550,"wearily":12551,"sift":12552,"sullivan":12553,"honeymoon":12554,"merit":12555,"attacker":12556,"renna":12557,"cadence":12558,"fluffy":12559,"ignition":12560,"geoff":12561,"crackling":12562,"##ni":12563,"##bul":12564,"streaks":12565,"recovering":12566,"spiders":12567,"cabinets":12568,"kurt":12569,"##yr":12570,"grill":12571,"mend":12572,"ambass":12573,"dangled":12574,"kaitlyn":12575,"holster":12576,"##quin":12577,"##mund":12578,"inapprop":12579,"evenly":12580,"sharpened":12581,"childish":12582,"penis":12583,"succumb":12584,"obsession":12585,"rann":12586,"staggering":12587,"bandages":12588,"##yson":12589,"##athon":12590,"braid":12591,"##rossed":12592,"braden":12593,"unra":12594,"umm":12595,"##istics":12596,"civilization":12597,"brack":12598,"nathaniel":12599,"halloween":12600,"unicorn":12601,"##headed":12602,"exting":12603,"inwardly":12604,"chunks":12605,"##bridge":12606,"rut":12607,"approx":12608,"swer":12609,"##phed":12610,"maneuver":12611,"tragic":12612,"followers":12613,"delicately":12614,"conor":12615,"bisc":12616,"cod":12617,"simm":12618,"brink":12619,"##oty":12620,"poisoned":12621,"associated":12622,"clawing":12623,"facebook":12624,"darn":12625,"graduate":12626,"goof":12627,"trot":12628,"##rup":12629,"urgently":12630,"mercen":12631,"sauntered":12632,"##bin":12633,"kiran":12634,"grazed":12635,"drying":12636,"mating":12637,"loser":12638,"stim":12639,"patrons":12640,"bloom":12641,"spiked":12642,"recl":12643,"cardboard":12644,"wizards":12645,"pipes":12646,"kyrian":12647,"constructed":12648,"fract":12649,"residents":12650,"motioning":12651,"unnot":12652,"irration":12653,"##stage":12654,"jaxon":12655,"terrain":12656,"tranqu":12657,"sling":12658,"mirac":12659,"serpent":12660,"editor":12661,"smoothing":12662,"taryn":12663,"uncom":12664,"oph":12665,"salute":12666,"lazily":12667,"tubes":12668,"##gown":12669,"haunting":12670,"lacy":12671,"liberty":12672,"199":12673,"fathom":12674,"##rows":12675,"darlin":12676,"scents":12677,"gigantic":12678,"bracing":12679,"resid":12680,"jerks":12681,"##insley":12682,"initially":12683,"crouch":12684,"expressed":12685,"sincer":12686,"paras":12687,"wheelchair":12688,"gru":12689,"smoldering":12690,"somethin":12691,"salon":12692,"brig":12693,"##ielle":12694,"fuckin":12695,"transparent":12696,"jerich":12697,"intricate":12698,"fisher":12699,"giddy":12700,"stillness":12701,"echoes":12702,"oz":12703,"proximity":12704,"executed":12705,"innocently":12706,"##corn":12707,"weaker":12708,"rover":12709,"cate":12710,"stacy":12711,"clown":12712,"preoccupied":12713,"foam":12714,"calf":12715,"bodo":12716,"nico":12717,"prevented":12718,"subt":12719,"sailors":12720,"maintenance":12721,"feature":12722,"criminals":12723,"skidded":12724,"ghostly":12725,"cliffs":12726,"sephrenia":12727,"clara":12728,"knit":12729,"merch":12730,"purely":12731,"petals":12732,"bloods":12733,"mature":12734,"purred":12735,"kayla":12736,"poetry":12737,"beld":12738,"scented":12739,"hitched":12740,"##obs":12741,"kan":12742,"##oran":12743,"reeling":12744,"cobb":12745,"jur":12746,"peach":12747,"fooled":12748,"##attan":12749,"##eries":12750,"prud":12751,"idiots":12752,"fus":12753,"slash":12754,"collective":12755,"##esto":12756,"integr":12757,"fireworks":12758,"mingled":12759,"##aya":12760,"plaster":12761,"digital":12762,"radiating":12763,"realise":12764,"asph":12765,"sturdy":12766,"idly":12767,"interpret":12768,"semester":12769,"##asms":12770,"locals":12771,"faye":12772,"rhea":12773,"detached":12774,"chop":12775,"doorstep":12776,"##iche":12777,"nuzzled":12778,"inconven":12779,"cia":12780,"##fr":12781,"byron":12782,"##dro":12783,"##izable":12784,"##ucky":12785,"pancakes":12786,"##liness":12787,"loan":12788,"sandra":12789,"medication":12790,"spears":12791,"superst":12792,"stamp":12793,"inject":12794,"barren":12795,"horribly":12796,"responds":12797,"lavender":12798,"merlin":12799,"projects":12800,"salty":12801,"outburst":12802,"luca":12803,"industrial":12804,"strictly":12805,"poppy":12806,"european":12807,"pon":12808,"risky":12809,"dots":12810,"valid":12811,"punches":12812,"nightgown":12813,"absorb":12814,"rival":12815,"teresa":12816,"hammered":12817,"website":12818,"vile":12819,"intoxic":12820,"copies":12821,"heights":12822,"downed":12823,"precaut":12824,"materials":12825,"##kirts":12826,"armies":12827,"breathlessly":12828,"calend":12829,"habits":12830,"prett":12831,"thicker":12832,"unhe":12833,"robots":12834,"obliged":12835,"smugg":12836,"coiled":12837,"##ogne":12838,"madam":12839,"strawberry":12840,"encouragement":12841,"noisy":12842,"##version":12843,"strung":12844,"amelie":12845,"baffled":12846,"flustered":12847,"williams":12848,"gunslinger":12849,"leveled":12850,"pastor":12851,"faithful":12852,"##rem":12853,"preparation":12854,"muzzle":12855,"mixing":12856,"##rix":12857,"teens":12858,"maam":12859,"sis":12860,"maia":12861,"inherited":12862,"wetness":12863,"cockpit":12864,"reece":12865,"thieves":12866,"centered":12867,"rejection":12868,"gry":12869,"contemplated":12870,"expense":12871,"horrific":12872,"sprout":12873,"bria":12874,"tying":12875,"squared":12876,"boundaries":12877,"##cake":12878,"##celyn":12879,"everyday":12880,"restrained":12881,"parallel":12882,"embedded":12883,"kidnapping":12884,"gansey":12885,"lori":12886,"gloved":12887,"arab":12888,"skyler":12889,"streams":12890,"swirl":12891,"##vie":12892,"distaste":12893,"benefits":12894,"chis":12895,"signals":12896,"industry":12897,"##ottie":12898,"volunteer":12899,"engulfed":12900,"performing":12901,"sincerely":12902,"burger":12903,"holt":12904,"sources":12905,"depended":12906,"rests":12907,"reasoning":12908,"##ricted":12909,"##uate":12910,"widely":12911,"##roc":12912,"##aska":12913,"stalker":12914,"##onsciously":12915,"##estyle":12916,"profit":12917,"##irin":12918,"milit":12919,"solved":12920,"moth":12921,"alche":12922,"ira":12923,"genes":12924,"necessity":12925,"heres":12926,"spikes":12927,"hairy":12928,"festival":12929,"##enance":12930,"horace":12931,"reactions":12932,"futile":12933,"sneer":12934,"cait":12935,"louie":12936,"undone":12937,"hugo":12938,"pas":12939,"dissolved":12940,"orphan":12941,"cologne":12942,"tingled":12943,"##oes":12944,"apartments":12945,"guidance":12946,"massage":12947,"##inis":12948,"beet":12949,"carving":12950,"librarian":12951,"mankind":12952,"dahl":12953,"auction":12954,"footing":12955,"outskirts":12956,"atlanta":12957,"miniature":12958,"breathtaking":12959,"imaginary":12960,"penthouse":12961,"tumble":12962,"##ormal":12963,"hooves":12964,"faerie":12965,"lamb":12966,"##apes":12967,"logs":12968,"definition":12969,"minimum":12970,"boomed":12971,"cheering":12972,"lacking":12973,"conceded":12974,"kah":12975,"apologetic":12976,"crook":12977,"infl":12978,"circuit":12979,"inhabit":12980,"bows":12981,"experiments":12982,"excru":12983,"quizz":12984,"whirling":12985,"hats":12986,"##acent":12987,"brent":12988,"slams":12989,"collarbone":12990,"miraculous":12991,"aggra":12992,"latin":12993,"preserve":12994,"##usal":12995,"sheen":12996,"monitors":12997,"trio":12998,"wits":12999,"tribes":13000,"tir":13001,"destined":13002,"skelet":13003,"jocelyn":13004,"197":13005,"barbara":13006,"dislike":13007,"ouch":13008,"tak":13009,"quent":13010,"##actor":13011,"incredulously":13012,"tyrion":13013,"##kel":13014,"##alling":13015,"stupidity":13016,"essentially":13017,"contemplating":13018,"anonymous":13019,"compulsion":13020,"quickened":13021,"croaked":13022,"hallways":13023,"syll":13024,"sneakers":13025,"##far":13026,"##tos":13027,"viewing":13028,"kitty":13029,"bowing":13030,"moons":13031,"lem":13032,"sprung":13033,"guarante":13034,"clasp":13035,"ignorant":13036,"pains":13037,"proposed":13038,"cd":13039,"slumber":13040,"funds":13041,"loosen":13042,"artificial":13043,"spied":13044,"excruciating":13045,"##pa":13046,"unwanted":13047,"monroe":13048,"millenn":13049,"renewed":13050,"fished":13051,"newest":13052,"popcorn":13053,"balloon":13054,"therap":13055,"alyssa":13056,"harlow":13057,"stunt":13058,"vigil":13059,"##osity":13060,"tinted":13061,"seeping":13062,"tanks":13063,"harvest":13064,"splitting":13065,"tasks":13066,"enclosed":13067,"ronnie":13068,"clarissa":13069,"rita":13070,"fingered":13071,"arrives":13072,"##eous":13073,"intr":13074,"detected":13075,"tuned":13076,"excused":13077,"consisted":13078,"shielded":13079,"primal":13080,"bubbling":13081,"glimpsed":13082,"quilt":13083,"bonds":13084,"cathedral":13085,"##oren":13086,"gash":13087,"actor":13088,"##ocks":13089,"snagged":13090,"disapproval":13091,"judy":13092,"##ees":13093,"truthfully":13094,"hostage":13095,"jelly":13096,"gull":13097,"donald":13098,"sparkle":13099,"immortality":13100,"unim":13101,"peripher":13102,"randall":13103,"orche":13104,"awfully":13105,"wavered":13106,"snug":13107,"serene":13108,"luxur":13109,"##will":13110,"sheridan":13111,"housed":13112,"wrestling":13113,"snaked":13114,"##avan":13115,"restored":13116,"sorted":13117,"styl":13118,"blurry":13119,"sincerity":13120,"##icit":13121,"info":13122,"crystals":13123,"descending":13124,"metaph":13125,"##chel":13126,"diso":13127,"transition":13128,"trenton":13129,"mul":13130,"defle":13131,"agreeing":13132,"watery":13133,"##lynn":13134,"hows":13135,"scrub":13136,"##hop":13137,"spying":13138,"laylen":13139,"prone":13140,"lifestyle":13141,"daniels":13142,"jericho":13143,"threads":13144,"rasp":13145,"mint":13146,"reared":13147,"whistling":13148,"##atics":13149,"shatter":13150,"concerning":13151,"unnoticed":13152,"dia":13153,"##iago":13154,"jacks":13155,"intercept":13156,"silenced":13157,"suppress":13158,"primitive":13159,"sincl":13160,"invaded":13161,"savoring":13162,"zachary":13163,"galaxy":13164,"polly":13165,"pawn":13166,"mcke":13167,"falcon":13168,"subdued":13169,"roberts":13170,"##alia":13171,"sare":13172,"brat":13173,"bowls":13174,"cater":13175,"verd":13176,"wrought":13177,"weekends":13178,"pots":13179,"##woman":13180,"##kyrian":13181,"cull":13182,"##oons":13183,"nykyrian":13184,"errand":13185,"wins":13186,"weighing":13187,"michaels":13188,"abraham":13189,"realizes":13190,"shells":13191,"cronus":13192,"##mind":13193,"coron":13194,"grocer":13195,"array":13196,"sputtered":13197,"darkly":13198,"hedge":13199,"grips":13200,"##ocity":13201,"murmuring":13202,"adele":13203,"emerging":13204,"reassurance":13205,"noel":13206,"overfl":13207,"crazed":13208,"ignorance":13209,"smashing":13210,"##lah":13211,"earrings":13212,"holder":13213,"##state":13214,"communications":13215,"lark":13216,"##rah":13217,"investigating":13218,"##angled":13219,"barbie":13220,"historical":13221,"##cers":13222,"wheez":13223,"splashing":13224,"latched":13225,"tattooed":13226,"##ixed":13227,"shaun":13228,"myra":13229,"crouching":13230,"exhale":13231,"##zi":13232,"apprehension":13233,"##quate":13234,"involvement":13235,"unread":13236,"booze":13237,"##dream":13238,"##essions":13239,"crust":13240,"adored":13241,"brody":13242,"##grown":13243,"triple":13244,"manipulate":13245,"ainsley":13246,"insulted":13247,"27":13248,"##adium":13249,"nec":13250,"cradle":13251,"wretched":13252,"##ampoo":13253,"conserv":13254,"scolded":13255,"rapt":13256,"##lson":13257,"anita":13258,"shampoo":13259,"##fol":13260,"bak":13261,"woven":13262,"##iate":13263,"mirr":13264,"striped":13265,"##utions":13266,"sau":13267,"boarded":13268,"twinge":13269,"##ridge":13270,"articles":13271,"denim":13272,"arian":13273,"devastating":13274,"##itating":13275,"splayed":13276,"kalten":13277,"mushroom":13278,"dancers":13279,"motive":13280,"sinclair":13281,"##ghan":13282,"opportun":13283,"noses":13284,"stairway":13285,"manhattan":13286,"##osh":13287,"bethel":13288,"explosive":13289,"heating":13290,"steered":13291,"bounded":13292,"separating":13293,"##ener":13294,"jael":13295,"discern":13296,"tattered":13297,"##hor":13298,"flur":13299,"unsc":13300,"scoot":13301,"shard":13302,"releases":13303,"bianca":13304,"##beth":13305,"airplane":13306,"remotely":13307,"subsided":13308,"steer":13309,"theresa":13310,"headboard":13311,"clearer":13312,"dirk":13313,"bumping":13314,"mirrored":13315,"plains":13316,"mercer":13317,"infect":13318,"bounty":13319,"fearing":13320,"attire":13321,"parch":13322,"stretches":13323,"rippling":13324,"exhilar":13325,"ripple":13326,"darkest":13327,"bos":13328,"insign":13329,"aph":13330,"##fect":13331,"herbs":13332,"epic":13333,"seren":13334,"nervousness":13335,"devastated":13336,"bats":13337,"cack":13338,"katy":13339,"cope":13340,"perplexed":13341,"kneel":13342,"plush":13343,"remembers":13344,"balled":13345,"barak":13346,"ambush":13347,"chills":13348,"philosophy":13349,"rud":13350,"idle":13351,"insistent":13352,"domen":13353,"brandt":13354,"##isons":13355,"juan":13356,"convent":13357,"bryce":13358,"irritating":13359,"paralyzed":13360,"snoring":13361,"valky":13362,"vibration":13363,"clap":13364,"wrinkles":13365,"rimmed":13366,"##gher":13367,"notch":13368,"humble":13369,"housekeeper":13370,"travels":13371,"indo":13372,"flavor":13373,"jeez":13374,"filtered":13375,"sprawling":13376,"comfor":13377,"creased":13378,"stuffing":13379,"twirled":13380,"resume":13381,"merchant":13382,"nig":13383,"tori":13384,"brenna":13385,"heroes":13386,"observing":13387,"swipe":13388,"fert":13389,"hail":13390,"rained":13391,"##say":13392,"agnes":13393,"agrees":13394,"boone":13395,"dealer":13396,"scholar":13397,"##irs":13398,"brett":13399,"flapping":13400,"eval":13401,"intensified":13402,"##proof":13403,"apples":13404,"##athe":13405,"ingr":13406,"israel":13407,"##adian":13408,"marker":13409,"tremor":13410,"stryker":13411,"masks":13412,"disre":13413,"meek":13414,"spies":13415,"inherit":13416,"benches":13417,"squeezes":13418,"overlooked":13419,"indiffer":13420,"opera":13421,"confidently":13422,"maiden":13423,"administr":13424,"exert":13425,"footage":13426,"enlight":13427,"endear":13428,"sprayed":13429,"sophisticated":13430,"vanish":13431,"runner":13432,"billion":13433,"##pert":13434,"remainder":13435,"##bid":13436,"upcoming":13437,"theme":13438,"intersection":13439,"swan":13440,"daydream":13441,"kathy":13442,"passport":13443,"grandson":13444,"##eady":13445,"flock":13446,"dimmed":13447,"seduce":13448,"manifest":13449,"trimmed":13450,"whereabouts":13451,"##inky":13452,"nibbled":13453,"bile":13454,"appra":13455,"considerably":13456,"inspected":13457,"brightness":13458,"##making":13459,"bridget":13460,"charred":13461,"didn":13462,"wakes":13463,"terra":13464,"officials":13465,"situated":13466,"overse":13467,"trist":13468,"scrunched":13469,"##oked":13470,"lowers":13471,"mateo":13472,"##lli":13473,"formation":13474,"doubtful":13475,"jug":13476,"gifted":13477,"definite":13478,"remarkably":13479,"equipped":13480,"chatted":13481,"##hot":13482,"grandchild":13483,"opposed":13484,"holidays":13485,"taunting":13486,"silhouette":13487,"torak":13488,"sections":13489,"chilling":13490,"padd":13491,"horde":13492,"reflect":13493,"terrace":13494,"budget":13495,"handcuffs":13496,"avi":13497,"drac":13498,"defl":13499,"##books":13500,"fitz":13501,"squirm":13502,"plummet":13503,"preacher":13504,"jak":13505,"##icism":13506,"discovering":13507,"biological":13508,"inappropriate":13509,"##ede":13510,"unsteady":13511,"rushes":13512,"shielding":13513,"enthusiastic":13514,"ine":13515,"plunging":13516,"uncontrollably":13517,"##just":13518,"soccer":13519,"discipline":13520,"pigeon":13521,"frog":13522,"crate":13523,"natasha":13524,"enhanced":13525,"employed":13526,"novels":13527,"scoop":13528,"peep":13529,"decipher":13530,"risking":13531,"designs":13532,"##rying":13533,"churned":13534,"vase":13535,"stealth":13536,"keira":13537,"righteous":13538,"syring":13539,"chattering":13540,"scaring":13541,"hitch":13542,"hostess":13543,"convention":13544,"##11":13545,"##uro":13546,"intending":13547,"rio":13548,"##mble":13549,"consume":13550,"gob":13551,"impending":13552,"malach":13553,"rides":13554,"sector":13555,"##teenth":13556,"exclusive":13557,"frequent":13558,"fling":13559,"boobs":13560,"28":13561,"stakes":13562,"straighter":13563,"evenings":13564,"bio":13565,"improved":13566,"##rils":13567,"caller":13568,"chandel":13569,"groceries":13570,"##ilized":13571,"pines":13572,"offensive":13573,"mute":13574,"ruffled":13575,"throng":13576,"captains":13577,"drip":13578,"skeptical":13579,"reprodu":13580,"binoc":13581,"hilar":13582,"##town":13583,"imprisoned":13584,"##she":13585,"slot":13586,"ribbons":13587,"clayton":13588,"coma":13589,"aristo":13590,"sapphire":13591,"sedan":13592,"##ivalent":13593,"glimmer":13594,"##vial":13595,"uneasily":13596,"speck":13597,"hauling":13598,"ariz":13599,"appointed":13600,"nim":13601,"enterpr":13602,"unmo":13603,"masc":13604,"gunshot":13605,"mortimer":13606,"glide":13607,"##inates":13608,"teren":13609,"raymond":13610,"laden":13611,"skit":13612,"merci":13613,"requires":13614,"mcg":13615,"##aria":13616,"wilderness":13617,"notor":13618,"swarm":13619,"evac":13620,"##glass":13621,"villa":13622,"roam":13623,"installed":13624,"dispat":13625,"eer":13626,"rewarded":13627,"poo":13628,"caval":13629,"asphalt":13630,"26":13631,"starved":13632,"voy":13633,"vicinity":13634,"hover":13635,"##resist":13636,"hauk":13637,"clothed":13638,"comforted":13639,"owl":13640,"sans":13641,"penetrated":13642,"fumbling":13643,"cove":13644,"twinkling":13645,"grunts":13646,"aeron":13647,"asses":13648,"inserted":13649,"newt":13650,"creak":13651,"tidy":13652,"resentment":13653,"drople":13654,"predicted":13655,"jabbed":13656,"##bro":13657,"chelsea":13658,"infinite":13659,"investigator":13660,"opinions":13661,"stitches":13662,"boulders":13663,"blues":13664,"resignation":13665,"comforter":13666,"##rap":13667,"frigid":13668,"##oust":13669,"momentary":13670,"hose":13671,"docks":13672,"##phil":13673,"nipped":13674,"tegan":13675,"agonizing":13676,"rebellion":13677,"overpower":13678,"freder":13679,"lothaire":13680,"ebook":13681,"factor":13682,"significance":13683,"expanded":13684,"executive":13685,"pillars":13686,"dishe":13687,"effortlessly":13688,"dissol":13689,"laboratory":13690,"madd":13691,"animated":13692,"stadium":13693,"##anton":13694,"##owering":13695,"##ieth":13696,"cows":13697,"yach":13698,"##ilton":13699,"sympt":13700,"purposely":13701,"emphasis":13702,"downright":13703,"196":13704,"mang":13705,"triggered":13706,"patric":13707,"traded":13708,"amara":13709,"lloy":13710,"stump":13711,"##veling":13712,"permitted":13713,"cynth":13714,"##aric":13715,"deton":13716,"ducking":13717,"mell":13718,"##eta":13719,"ares":13720,"crossbow":13721,"wail":13722,"psychiat":13723,"grease":13724,"masked":13725,"convey":13726,"subconscious":13727,"pope":13728,"inhaling":13729,"glinted":13730,"wedged":13731,"sla":13732,"perch":13733,"saus":13734,"bobbing":13735,"sinks":13736,"hence":13737,"jazz":13738,"debbie":13739,"rubb":13740,"ambassador":13741,"##gir":13742,"##stru":13743,"predic":13744,"solitary":13745,"strateg":13746,"peanut":13747,"earning":13748,"illust":13749,"reynold":13750,"ridiculously":13751,"positively":13752,"frustrating":13753,"intu":13754,"entit":13755,"severely":13756,"amazingly":13757,"reign":13758,"tipping":13759,"publ":13760,"mechanism":13761,"slaught":13762,"madly":13763,"prophet":13764,"auburn":13765,"sessions":13766,"involving":13767,"calendar":13768,"binoculars":13769,"stuttered":13770,"courtroom":13771,"daze":13772,"steadied":13773,"arizona":13774,"##ppling":13775,"maniac":13776,"chron":13777,"chanting":13778,"brynna":13779,"bean":13780,"tails":13781,"catholic":13782,"strips":13783,"sylvie":13784,"##yan":13785,"circus":13786,"wrenching":13787,"laps":13788,"warner":13789,"secre":13790,"villages":13791,"crows":13792,"powerless":13793,"bonus":13794,"enfor":13795,"barefoot":13796,"introduction":13797,"methods":13798,"wailed":13799,"broom":13800,"samples":13801,"alarming":13802,"theories":13803,"##itage":13804,"dimples":13805,"##ronia":13806,"##ipe":13807,"skeleton":13808,"##ilia":13809,"trading":13810,"##utt":13811,"jost":13812,"##cede":13813,"##ference":13814,"lain":13815,"survey":13816,"ade":13817,"##mann":13818,"passageway":13819,"kas":13820,"gogg":13821,"##opes":13822,"loren":13823,"diane":13824,"shrieking":13825,"##iency":13826,"convul":13827,"prodded":13828,"rhod":13829,"battling":13830,"badass":13831,"weston":13832,".-":13833,"##idian":13834,"lucius":13835,"quentin":13836,"embroid":13837,"##stered":13838,"someones":13839,"flawless":13840,"suzanne":13841,"thirt":13842,"sophronia":13843,"##elo":13844,"incor":13845,"unmoving":13846,"##ampered":13847,"gps":13848,"germany":13849,"income":13850,"sporting":13851,"surgeon":13852,"dolph":13853,"von":13854,"hangar":13855,"adventures":13856,"scholarsh":13857,"throb":13858,"cease":13859,"penn":13860,"shhh":13861,"lloyd":13862,"enraged":13863,"assessment":13864,"quad":13865,"braz":13866,"elevators":13867,"nailed":13868,"vacuum":13869,"##with":13870,"jog":13871,"lens":13872,"flights":13873,"umbrella":13874,"camille":13875,"unreadable":13876,"##unches":13877,"colorado":13878,"gryph":13879,"achieved":13880,"quinlan":13881,"addiction":13882,"saff":13883,"##ares":13884,"minus":13885,"planting":13886,"29":13887,"dreaded":13888,"african":13889,"nev":13890,"mustache":13891,"trudged":13892,"cereal":13893,"screech":13894,"kra":13895,"spoil":13896,"enforcement":13897,"leak":13898,"ingred":13899,"conspiracy":13900,"carto":13901,"hopping":13902,"sidhe":13903,"writhed":13904,"nations":13905,"sie":13906,"sleeved":13907,"encirc":13908,"##ups":13909,"##brid":13910,"rehab":13911,"blinks":13912,"trauma":13913,"disintegr":13914,"diagn":13915,"hurric":13916,"ernie":13917,"languages":13918,"jayne":13919,"tricky":13920,"screeching":13921,"##aders":13922,"simi":13923,"posts":13924,"enjoyment":13925,"viewed":13926,"divorced":13927,"##tops":13928,"gauge":13929,"thw":13930,"35":13931,"cau":13932,"##oi":13933,"##ivers":13934,"pillar":13935,"tactics":13936,"winks":13937,"mathias":13938,"gina":13939,"kale":13940,"congress":13941,"reappeared":13942,"shepherd":13943,"hod":13944,"ruining":13945,"phantom":13946,"channels":13947,"heavenly":13948,"advis":13949,"shyly":13950,"whereas":13951,"unbuttoned":13952,"shouldered":13953,"armchair":13954,"iced":13955,"defiance":13956,"recoll":13957,"collapsing":13958,"royce":13959,"lefto":13960,"pelt":13961,"##aiah":13962,"sookie":13963,"anast":13964,"nicer":13965,"leadership":13966,"taps":13967,"percept":13968,"breathes":13969,"award":13970,"earthqu":13971,"keely":13972,"clears":13973,"hamb":13974,"consent":13975,"collided":13976,"girlfriends":13977,"reah":13978,"finch":13979,"refr":13980,"jefferson":13981,"elaine":13982,"abund":13983,"grump":13984,"##alski":13985,"reserve":13986,"responsibilities":13987,"briggs":13988,"goddamned":13989,"duffel":13990,"jogging":13991,"arose":13992,"scope":13993,"valkyrie":13994,"##post":13995,"crammed":13996,"##heast":13997,"graveyard":13998,"##iti":13999,"##arek":14000,"links":14001,"assembly":14002,"blu":14003,"unpred":14004,"bailey":14005,"##isp":14006,"translated":14007,"##unction":14008,"wavy":14009,"regrets":14010,"terrorist":14011,"bony":14012,"bask":14013,"##isms":14014,"halo":14015,"##imil":14016,"replacing":14017,"relieve":14018,"yelped":14019,"overall":14020,"assail":14021,"##ciless":14022,"technical":14023,"mckay":14024,"merciless":14025,"forefinger":14026,"eldest":14027,"dodging":14028,"amar":14029,"http":14030,"mocked":14031,"beta":14032,"impr":14033,"congreg":14034,"wallace":14035,"monty":14036,"nude":14037,"sap":14038,"ember":14039,"locations":14040,"declar":14041,"##gate":14042,"anyhow":14043,"depri":14044,"genevieve":14045,"##acking":14046,"##haven":14047,"bees":14048,"unpredict":14049,"peel":14050,"tendrils":14051,"yearning":14052,"fingertip":14053,"crates":14054,"rebels":14055,"slippers":14056,"global":14057,"typing":14058,"hoarsely":14059,"pater":14060,"goble":14061,"poorly":14062,"scandal":14063,"##acco":14064,"zoo":14065,"satan":14066,"incapable":14067,"seer":14068,"capit":14069,"shapesh":14070,"impuls":14071,"shagg":14072,"spont":14073,"skipping":14074,"quieter":14075,"##cat":14076,"dominant":14077,"booked":14078,"bloodied":14079,"toppled":14080,"signing":14081,"examination":14082,"therm":14083,"mesmerized":14084,"bing":14085,"plag":14086,"brend":14087,"stripping":14088,"filing":14089,"##avia":14090,"##annie":14091,"jaim":14092,"sidel":14093,"whining":14094,"camou":14095,"scares":14096,"associate":14097,"hormones":14098,"cinn":14099,"maur":14100,"reluctance":14101,"gad":14102,"##aith":14103,"fry":14104,"melod":14105,"cav":14106,"pork":14107,"cinder":14108,"consort":14109,"supplied":14110,"camoufl":14111,"grit":14112,"vanilla":14113,"##raine":14114,"cruiser":14115,"ronin":14116,"##aven":14117,"posed":14118,"chey":14119,"cyn":14120,"erect":14121,"solely":14122,"irrational":14123,"erica":14124,"morg":14125,"##frame":14126,"medall":14127,"compens":14128,"vows":14129,"cance":14130,"explored":14131,"##heads":14132,"smirking":14133,"allows":14134,"suspects":14135,"ripe":14136,"kowalski":14137,"shredded":14138,"pitcher":14139,"unzipped":14140,"flann":14141,"mentor":14142,"archway":14143,"janice":14144,"elend":14145,"travelling":14146,"calculated":14147,"swiveled":14148,"plunge":14149,"##ousy":14150,"andrews":14151,"propose":14152,"raged":14153,"##utter":14154,"texting":14155,"analysis":14156,"flanked":14157,"notices":14158,"declined":14159,"charms":14160,"lodged":14161,"assumption":14162,"replacement":14163,"undert":14164,"miriam":14165,"implied":14166,"kettle":14167,"irresist":14168,"heritage":14169,"prominent":14170,"engineering":14171,"acquaintance":14172,"shave":14173,"products":14174,"thrott":14175,"prod":14176,"puffy":14177,"selection":14178,"reunion":14179,"beatrice":14180,"##store":14181,"##icable":14182,"intoxicating":14183,"disconnected":14184,"##istine":14185,"civilian":14186,"winged":14187,"hue":14188,"prescri":14189,"dischar":14190,"splattered":14191,"preparations":14192,"desol":14193,"drapes":14194,"intercom":14195,"glares":14196,"tripping":14197,"tobacco":14198,"obsess":14199,"mundane":14200,"traps":14201,"creamy":14202,"vend":14203,"rak":14204,"quen":14205,"trop":14206,"##hound":14207,"virgil":14208,"fragments":14209,"febru":14210,"quint":14211,"sammy":14212,"recognizing":14213,"unleashed":14214,"douche":14215,"prax":14216,"ary":14217,"cruelt":14218,
[...]
